node {
  name: "global_step/Initializer/zeros"
  op: "Const"
  attr {
    key: "_class"
    value {
      list {
        s: "loc:@global_step"
      }
    }
  }
  attr {
    key: "_output_shapes"
    value {
      list {
        shape {
        }
      }
    }
  }
  attr {
    key: "dtype"
    value {
      type: DT_INT64
    }
  }
  attr {
    key: "value"
    value {
      tensor {
        dtype: DT_INT64
        tensor_shape {
        }
        int64_val: 0
      }
    }
  }
}
node {
  name: "global_step"
  op: "VariableV2"
  attr {
    key: "_class"
    value {
      list {
        s: "loc:@global_step"
      }
    }
  }
  attr {
    key: "_output_shapes"
    value {
      list {
        shape {
        }
      }
    }
  }
  attr {
    key: "container"
    value {
      s: ""
    }
  }
  attr {
    key: "dtype"
    value {
      type: DT_INT64
    }
  }
  attr {
    key: "shape"
    value {
      shape {
      }
    }
  }
  attr {
    key: "shared_name"
    value {
      s: ""
    }
  }
}
node {
  name: "global_step/Assign"
  op: "Assign"
  input: "global_step"
  input: "global_step/Initializer/zeros"
  attr {
    key: "T"
    value {
      type: DT_INT64
    }
  }
  attr {
    key: "_class"
    value {
      list {
        s: "loc:@global_step"
      }
    }
  }
  attr {
    key: "_output_shapes"
    value {
      list {
        shape {
        }
      }
    }
  }
  attr {
    key: "use_locking"
    value {
      b: true
    }
  }
  attr {
    key: "validate_shape"
    value {
      b: true
    }
  }
}
node {
  name: "global_step/read"
  op: "Identity"
  input: "global_step"
  attr {
    key: "T"
    value {
      type: DT_INT64
    }
  }
  attr {
    key: "_class"
    value {
      list {
        s: "loc:@global_step"
      }
    }
  }
  attr {
    key: "_output_shapes"
    value {
      list {
        shape {
        }
      }
    }
  }
}
node {
  name: "global_step/IsVariableInitialized"
  op: "IsVariableInitialized"
  input: "global_step"
  attr {
    key: "_class"
    value {
      list {
        s: "loc:@global_step"
      }
    }
  }
  attr {
    key: "_output_shapes"
    value {
      list {
        shape {
        }
      }
    }
  }
  attr {
    key: "dtype"
    value {
      type: DT_INT64
    }
  }
}
node {
  name: "global_step/cond/Switch"
  op: "Switch"
  input: "global_step/IsVariableInitialized"
  input: "global_step/IsVariableInitialized"
  attr {
    key: "T"
    value {
      type: DT_BOOL
    }
  }
  attr {
    key: "_output_shapes"
    value {
      list {
        shape {
        }
        shape {
        }
      }
    }
  }
}
node {
  name: "global_step/cond/switch_t"
  op: "Identity"
  input: "global_step/cond/Switch:1"
  attr {
    key: "T"
    value {
      type: DT_BOOL
    }
  }
  attr {
    key: "_output_shapes"
    value {
      list {
        shape {
        }
      }
    }
  }
}
node {
  name: "global_step/cond/switch_f"
  op: "Identity"
  input: "global_step/cond/Switch"
  attr {
    key: "T"
    value {
      type: DT_BOOL
    }
  }
  attr {
    key: "_output_shapes"
    value {
      list {
        shape {
        }
      }
    }
  }
}
node {
  name: "global_step/cond/pred_id"
  op: "Identity"
  input: "global_step/IsVariableInitialized"
  attr {
    key: "T"
    value {
      type: DT_BOOL
    }
  }
  attr {
    key: "_output_shapes"
    value {
      list {
        shape {
        }
      }
    }
  }
}
node {
  name: "global_step/cond/read"
  op: "Identity"
  input: "global_step/cond/read/Switch:1"
  attr {
    key: "T"
    value {
      type: DT_INT64
    }
  }
  attr {
    key: "_output_shapes"
    value {
      list {
        shape {
        }
      }
    }
  }
}
node {
  name: "global_step/cond/read/Switch"
  op: "RefSwitch"
  input: "global_step"
  input: "global_step/cond/pred_id"
  attr {
    key: "T"
    value {
      type: DT_INT64
    }
  }
  attr {
    key: "_class"
    value {
      list {
        s: "loc:@global_step"
      }
    }
  }
  attr {
    key: "_output_shapes"
    value {
      list {
        shape {
        }
        shape {
        }
      }
    }
  }
}
node {
  name: "global_step/cond/Switch_1"
  op: "Switch"
  input: "global_step/Initializer/zeros"
  input: "global_step/cond/pred_id"
  attr {
    key: "T"
    value {
      type: DT_INT64
    }
  }
  attr {
    key: "_class"
    value {
      list {
        s: "loc:@global_step"
      }
    }
  }
  attr {
    key: "_output_shapes"
    value {
      list {
        shape {
        }
        shape {
        }
      }
    }
  }
}
node {
  name: "global_step/cond/Merge"
  op: "Merge"
  input: "global_step/cond/Switch_1"
  input: "global_step/cond/read"
  attr {
    key: "N"
    value {
      i: 2
    }
  }
  attr {
    key: "T"
    value {
      type: DT_INT64
    }
  }
  attr {
    key: "_output_shapes"
    value {
      list {
        shape {
        }
        shape {
        }
      }
    }
  }
}
node {
  name: "global_step/add/y"
  op: "Const"
  attr {
    key: "_output_shapes"
    value {
      list {
        shape {
        }
      }
    }
  }
  attr {
    key: "dtype"
    value {
      type: DT_INT64
    }
  }
  attr {
    key: "value"
    value {
      tensor {
        dtype: DT_INT64
        tensor_shape {
        }
        int64_val: 0
      }
    }
  }
}
node {
  name: "global_step/add"
  op: "Add"
  input: "global_step/cond/Merge"
  input: "global_step/add/y"
  attr {
    key: "T"
    value {
      type: DT_INT64
    }
  }
  attr {
    key: "_output_shapes"
    value {
      list {
        shape {
        }
      }
    }
  }
}
node {
  name: "tensors/component_0"
  op: "Const"
  device: "/device:CPU:0"
  attr {
    key: "_output_shapes"
    value {
      list {
        shape {
          dim {
            size: 243
          }
        }
      }
    }
  }
  attr {
    key: "dtype"
    value {
      type: DT_DOUBLE
    }
  }
  attr {
    key: "value"
    value {
      tensor {
        dtype: DT_DOUBLE
        tensor_shape {
          dim {
            size: 243
          }
        }
        tensor_content: "v5\232\330S]\272?\373\232)\320\316\331\340?\315\240\300\214@t\344\277U$p5\374\270\255\2779\035\342\316nu\310\277\375\031\253\273\034\254\022@\000J\203\250\351\235\300\277,\371h\t\343\373\326\277\323VMYK\026\373\277YIBZ\027\202\316\277\354\224\273\215\325_\320\277:l\263\225\275\243\325\277\200CRR\372\356\341\277\272t\013\336\tv\337?\004(,B\310a\366\277\036\033\036N\242\026\356\277\262\234\325\031\027\202\346?\342\214x\352E\370\313?\333\r\332_\001B\246?\004\361\335\215\325C\362\277\222\254\344\337>\335\243\277:\335\344}=\333\273\277\304\237\256\334up\301?\360\020\274\335om\333?Mo\216YG\314\344\277u\347\337\347%\352\236\277h\357\032aBb\007@\307\323\246u\021B\326\277\313\266,\217\320\367\242\277\245t\300\340`\020\272\277\355\211Cp;\270\270\277\347K\024\306\273H\316\277\177\332x\025\361D\353?\345c\356\2174N\303\277\215.\270\344\215\323\254\277.F\023\336\324\226\340\277@(\001\307$w\244?b$\237J\022s\320?\330\270E3+\210\332?(\323!\235\245W\263\277\256\007\204\267\2669\320?\014\316}\305\\\312\263\277\263e!\203\332D\215\277\005\337\"\232\272\327\251?f?g\337\320\374\343?\023\222g\2777\313\321?\246\363S\257j/\302\277\025F}\tJ\256\332\277\337\010\377\340K\202\003\300\323\317\3234\263N\027@8\277\207i\344U\352\277w-\373WQ\341\327\277c)bv\356t\332\277\r\351>\2406\001\336?\033\026Th\3411\263?\366\r0\031\345\036\332\277\025\032\014\236\327\022\313?\0357M\266\271%\313\277\213\256\262\206\360\007\266\277\237V\030\365%\350\310\277\270\333\266n\321\251\301?\017\210O\273\021\306\342\277\353\240\330+\250\177{?Q\260s\221J\376\004\300\320\032\303i\2570\000\300YA\302\346\322\302\003\3008S\031\255@ \356?>\351jIL\362\250?\247v5b.u\321?\312\257Bq\227\202\344\277*V\003Pi\235\322\277\257x\265\2376q\306\277A\323\267q0\320\340\277\337.\323\255\3315\316?C\200\343\235\t\256\303?$<\251H\350\233\310?U\"\206\246\267\002\310\277\234#\026$\302\316\361?\277\"\367(\347A\335\277\272\374\257\274\251\235\271\277p\247+\332G\247\341\277]4\217\274\246y\342?C\234\022\006!\275\340?\202pY\023x(\010\300\253Vc_k\244\367\277D\345\'!\315b\337\277r\177\017\rt\025\332?\033#\266\024\300\217\320?\344S\254\214\331\301\340\277J\202c\333\021\252\330\277(\323!\235\245W\263\277\315\203\034\335\006\212\264?\254k\010\034vp\351\277\000\321\262?g\n\307?\325\025\340y\261)\326?\353J\255\362b3\275\277\3125\271\243\365\303\341\277N\205J\354r\273\316\277\326\253\230\257j\367\345\277- \027Iy\265\273?\303\036\364\033\017\276\345\277\354\274\336\024\216\364\327?W\021\335\317\003\361\353?\007\003\036\004\\\221\t@\326\325\342(\200\217\331\277\345\367\177\323\220\030\327\277\222:>\260\234\352\271?\344\373\313\266\037U\360\277\355\210\316(\031\335\325\2776~\312\371\256=\333\277\364M-j\026\271\326?d+\327\367\273\331\261?\235\323\326\3175\250\362\277~\3126\022\226(\321\277k\256\303f\272\266\336\277\217\177\367r\305\203\340?\035\327\313^\322r\331\277z\372J\030\264M\361?z\313\235\345\356=\322?,\371h\t\343\373\326\277Z\027G}C\365W?;[\003\005%\037\321?$<\251H\350\233\310?\035\327\313^\322r\331\277\240\352\2518\202\262\334\277\002\215g\n|I\323\277\344\003m8M\233\321\277\226\256\n\0338\210\020\300A\242C\277:\267\314\277\360\'\346\375\330\024\303\277\005\337\"\232\272\327\251?\273\303\334\244X\244\314?1\250\302\341\375O\356\277{\"\013u\261\031\347?\332n\364\304\202\341\225\277>\222\007,\375\247\234\277\215\201\233\343\341\237\312?\213|a\251c\322\342\277\270\266/!\230\023\350?{SB\304\216\205\313?\250{\370\215\nw\333\277=\363\351\346\037\363\354?9\035\342\316nu\310\277K\306\265\312\341M\355\277\277\"\367(\347A\335\277\0222\346gP\030\300?}*j\332\014\no\277\323\3105\245\277\216\354?\310\330\314\313\250\234\345?%h\032\264Z7\330\277\024\030\"\017\223\\\245?y:\250\333\021r\354?q;\275\035\244q\345?Bip\247\351\275\277?\340\273|\324\'\375\366?d\014\305\200\231m\333?\322@\221\306\037G\343\277\335r\036\343\304\326\322\277\332\316C\342(\275\252?\357hS\335r\221\377\277\233\317\341\243\303(\351\277,\005Vn\237~\321\277\202\225\277R\310\033\335?\260\307\206f\205\237\323\277-Y\352`\312\256\310\277\221\267\\\375\330\244\332?\3733w\205\"\303\315?F_\372\304%\332\363?\343\335\236\333\334h\000@^\206\336f\032\3422\277\004\240\214\034\342R\256?Wa\034$\220\207\303\277\210\324\240\247\202\263\340\277;[\003\005%\037\321?<\252\324\313sm\255?\024( \365\360\230\341\277$t\007\031\027\272\322\277\033\323v\3003i\341?Xq^\'\353\243\355\277\207>\350q\311\345\320?Kq\263Jy%\324?\361\tI\316\330\203\257\277o\010\033\277lR\305\277\350\316\365x\177\216\335?\217\374\025\300\001\316\350?\353J\255\362b3\275\277Zn\311\247P\030\350\277\216\340\346W\352.\324\277\005\024\236[\336\230\352?\016\231\377K\252\332\356?\\\207c\220\315+\327?\210C\253\235\245\347\332\277\213\256\262\206\360\007\266\277}*j\332\014\no\277\004\240\214\034\342R\256?j\272\260\313v9\331\277RA\2028\310Q\311\277\363\267\213\320\322\020\n@R><\377\001t\374?\200\354\021D\277\261\211\277H(/\222s#\364\277=lk\t\316\300\320\277\325\305)\027\203\347\341\277\225\271)\200\212\254\336?vgb\304\202\236\274\277\235\336\336\230\022\307\311?,\345\342\223A\302\375?\324p/\010c\306\332\277\351\030\227w\303\340\375\277\020\275\362D\003\035\340?\327~\303(.\325\347\277\276\355\341I\rx\342\277\017\274\340\'\234\326\002\300o4\357T\232v\330?d\361\2454\276\366\326\277\212\364z\256\361\004\364?\251}m\017\330\033\303\277\275?\253\272\261\272\322\277\340\004\014\266\004e\346?\300\001\322\243N\245\331\277\033Yd\0014f\326\277fSP\177-\247\350?\027;\320\371\337\000\300\277TF\235e\2106\311?\304U[m\242\357\246?T\255\333Y!P\276\277\007\207:S\270C\321?]\313f9\311Y\361\2770\315\310\256!\231\343\277\007b \242\255w\366\277\265\277\251\313\006J\370?X\203\372\rH_\364?\370\345}0\261x\313?X]\252y^o\323\277-\317 \221\370\r\274\277\033\006\204\272n\350\307\277\034\022\376\022\337S\334\277\366\340b\003\361\223\313\277\346\266a:\3131\251?\303\243Z21\327\256?\345|\300\"\020\346\327?l\3217\246}t\372\277\276X$\225E;\271\277"
      }
    }
  }
}
node {
  name: "tensors/component_1"
  op: "Const"
  device: "/device:CPU:0"
  attr {
    key: "_output_shapes"
    value {
      list {
        shape {
          dim {
            size: 243
          }
        }
      }
    }
  }
  attr {
    key: "dtype"
    value {
      type: DT_DOUBLE
    }
  }
  attr {
    key: "value"
    value {
      tensor {
        dtype: DT_DOUBLE
        tensor_shape {
          dim {
            size: 243
          }
        }
        tensor_content: "\241\200\331|\335\233\251\277\032G\332\375\222S\345\277\220\322\232Vr\254\362\277#\206R\270t\305\310\277\326E\317\002\364\210\311?\332>\356\237\312\260\360\2777\332\007\337O\233\335\277\351\265\365\255\270\363\325?\032\246S\252\206\251\n\300\034M\276q\0032\342\277\261\212\317N\032+\257?\307\\\000\267z\020\360\277\271\217\210\233\346\374\347\277\330P\014\276\240\215\327\277\005\377\315\036wp\344\277\203D\364\032\244\350\310?\0300\026\300ss\317\277\007;\232*\345\243\305\277A\247,\262\271D\233?\370\324\332\311\032\324\253?|\305\331\310\003>\317\277A\203\013\201u\357\367?\275\327/)U\232\301?\273\341\341\267\315\346\341\277B*\2519\227g\267\277(_\240\t\354H\324\277-S\313\212l\035\375?(_\240\t\354H\324\277\273j\376\225\036\030\242\277\232\336\005\027\031\'\325\277|\305\331\310\003>\317\277KP\325\232lW\263?\235\347\"\232M\353\355?\211\033n\302\350r\327\277\r\230\234\347Ch\316\277\247\255\232\262\226\\\347\277\350\312\344\367\335D\246\277\216\334m\363\323\363\311?J\212\021\207A \322\277Y_\212\226/4\341\277\026ed\000\020\246\332?0Y\223\251\255Q\264\277\334\237D\261\000\331\325?R\314-\354\352\007\277?u\215$\256T\361\304?\205>\375\014\024]\315\277F}\234\255\337\223\340\277\217\346\375\274\377(\340\277\343_\202U \263\362\277\275&\212\341\001\375\353?\344\225\024\355dO\307\277\250A1\257\254\377\272\277\333\034\361\250T0\311\277\304\361\031\334\030\263\324?\033z`\007\233(\252?aj \235\207a\337\277&\"\255E\314\353\275\277kB%q\000\244\331\277\234\266?J\376-\352\277v\222)\366\002\211\345\277\004\006\312\037l\256\266?\356>\302\216\321\352\321\277\321\335x\356r\276\345\277\276\366\205\275t\206\304?\334\237D\261\000\331\325?>\005\322[\302\265\351\277\n+\231\214\370\350\330\277\243M\037\313\314\026\262?.\377u\374\204\344\306\277P\347\277D\022V\352\277\265\266\303;\315=\267\277u\215$\256T\361\304?\366\241T\300\022\377\346\277c\304k\202\233\321\246?\255\300\363\377h\307\325\277\243\371\316\365\236\206\344?)\035\000\377\0017\354\277\037??\177\346\223\361\277\007\217>\377\240\302\323?\250A1\257\254\377\272\277\006\034D\226\305\267\302\277\252\344avV\370\347?|\247\016a\030\n\330?\2768\351dF]\020\300\247e\321_\333\247\341?\220\220\215\257YX\355?\003\203v\027\300\005\332?W\3432\217x\311\326?\216\347\252\256\200\370\327\277 \272m\315\300\"\327\277\004\000{\020\370?\334\277\307\362\244\010Mk\260?\323\374$\203Kc\370\277G\211\206Z\rh\266\277\275\240\263<w\321\213?I\374,\304Z\344\346\277\345\305JK3=\343\277\275\327/)U\232\301?\225qV\273[6\340\277Y6\316\001\335\362\254\277\362\034\3405\'\320\343\277\227B\253\211\301\000\320?\337|F\311{\372\365?\036\230\350\233PJ\360?u^\257%\356\021\007@\314\373\002\361\357\020\333?\307\362\244\010Mk\260?\316\340\277\336\234\310\255\277\245\325`\177\261U\322\277r,\013\0007F\345\277\264\274fJ\317:\342?\317$c\025l,\277\277\340&\217\346I\263\365\277\272\326\244\374 \342\325\277#\0344m_\235\336?\357\031z\245\333\373\245?}$\023ZPD\332\2774>\255Q\370t\330?\300W\0312\303+\317?+f\267\250\254t\360\277\310\254\312\375\217\305\334\277#\314k\'u\032\000@\030\367\264\375\n\235\276?\322V%\221}0\357\277\231\r]I%\316\304\277`K\312\010hu\334\277Mi\334\037\030\325\333\277j\377\313\001\367\036\001@\263\035\242\2759\375\355\277\253\271b\232w\031\341\277\265\266\303;\315=\267\277/\025\360r\336\355\242\277}\226\204\227\"\301\376\277\313\0022\343\211\372\262?\335\354\005\"h\245\263?\250\027\257\2138\263\347\277x\236\342\262\266\233\250?\005\033j#\2759\343?x\233Fy7M\336?\244X\\\206y\033\320?{\210\270\314\370\035\325?\247Y.\2109\276\022@\014\264\rl-\375\265\277\271\217\210\233\346\374\347\277Bm`\032\242t\000@n/\227\304\301t\320\277\247\213\313\363\013\357\267?\243\253\315/\345d\301?\343\352e\263\241=\355?\024\362i\2274\233\311\277\345f\275\272X\250\327\277\014[{\3538H\324?\263\223\301Q\362\352|?\214\222l\202c\267\340?\026\223\016A\233}\342?\221w\033\217\252J\347?\177\203\240\352*\331\345\277b\333:\351\221\307\353?\362X\202x\234#\240?\241\311\230\227\320\230\330\277\347%\205\315\216\241\346\2770\000\001)\271\234\322?02\345i\027\270\336?\034\302\r\005\'\337\016@\317\272\227\022\201\236\211\277\252\016w\375\233z\243?\223\376)\030?\324\226\277w\n\177\247E\344\366?\2532\017=\202\213\352\277?\007m\2442\016\360?\330P\014\276\240\215\327\277f\376Wq8p\361?\2639\277B\225\003\305\277\004\006\312\037l\256\266?oN\355X\341`\323\277\362\034\3405\'\320\343\277\335{*:\2416\324\277\317\217\313\'G+\343?u\215$\256T\361\304?\327\221\263H\304\210\362?\331\200B\034o{\343?\177\032\\\022\036o\245\277D\355+\315\265A\301\277]\257o{\020O\327?\2655\023\355\331\254\353?`\367%4\254V\276\277\303\363\357\206v^\361\277\237j_\006\204\222\315\277a{\000g6c\350?\210\206\244\232\202\372\346?u\274{\340`\230\324?=\214%\271\267C\340\277{\033\027\345\0043\177\277\t&\321\247b\316\375?\323Jc\254\035n\003@\213KP!)\322\322?\321\335i\303E\024\276\277\004\026\370>\3407\311\277\263\334F\301[\231\326?,\370\031\211c\274\342\277yK-\354M\216\014\300\223\2727\233\233\032\346?\350#\344\024\001t\253\277\313\0022\343\211\372\262?\315H\001\305o\332\227?,6\350v\357;\341\277\330\315d\266fV\177?\213\376\211\367\007\335\344\277\325\005p>kz\345?\262\261\250\016\r\331\316?\324\355\2679?L\337\277\371C\371\243$\373\264?\003\tx<\247=\371\277\3315}\035\010\256\315?L]\033\362\033\233\246?\234%\347\025f\031\342?\240\345\2377\032\362\372?\351O\001\201\345\200\305?\234;U\031![\004@\263L\311\266/G\253?\007\257\273Kr\330\314?kaF\023P\002\367\277\316\316\317\370\261\216R?\364|\342\r$\000\303?\362VV\315\205\247\272?\363\220\003X\337\036\254\277\252\307\275\306\034\256\324?6W\235:.\361\340\277\212\304\300\027\177\213\303\277x\304\346\270Zt\353\277\366\264Q\n\253>\007@\"\366\300\311a\220\347?\362h\217\211\'\232\344?Sj\304\006\352\210\003\300c\304\243,\372E\247?\233?\3215\306\240\334\277\374\234\212m\265{\340\277x\3633y\363)\300?c\263#\325w\376\277?\301\250S\007AK\361\277OI\323)Z\374\270?\236L H\205\021\342\277\302\025\307\266I[\350?"
      }
    }
  }
}
node {
  name: "tensors/component_2"
  op: "Const"
  device: "/device:CPU:0"
  attr {
    key: "_output_shapes"
    value {
      list {
        shape {
          dim {
            size: 243
          }
        }
      }
    }
  }
  attr {
    key: "dtype"
    value {
      type: DT_DOUBLE
    }
  }
  attr {
    key: "value"
    value {
      tensor {
        dtype: DT_DOUBLE
        tensor_shape {
          dim {
            size: 243
          }
        }
        tensor_content: "\313\\\030\235\267\'\313\277\375Ta\250\315\374\265?>\220@\254\314\216\310?\341\202\246\004H\375\333\277\221/\265f\252N\334\277\324\256\021\332\325`\r@\022\301\325\215\271\343\302\277\035,\340\301\366\003\351\277hf\216.44\366\277\002/\337l\006\307\333\277\310\352\017\372\275\000\314\277&G\372\347{\243\336\277\327\306\320\230\346\211\327\277\225\361\255\027\\\366\333?\351#e\225\026A\355\277\tk\274\244\314n\305\277\204\251\223W\332n\261\277\335\301M\033\025\305\326?_\325\034\312\227\352\306\277\337\024\223\215\300\205\200?\327\274\274\226\026\t\356?\262N2\305^\360\366?{\236\344\263\341\325\302?\016a\030\212\035H\335\277\2025;CR\n\343\277q\366>\275h[\324\277\201z\027\025\217\034\001@\260\227\357\336&#\350?b\255\341\357\005\020\315\277\336\356\207\3157\n\235\277x\336\242\240\317\330\240?\232x\327>\2745\360?\305\217\374\204]\333\261\277\246\237\226=\016\245\305\2772\232F\247o\030\312\277\021AVi\353\335\222\2775\014OJi?\311\277n\373\247\3465\340\326?M\217\364\t\243 \342\277\234\343\300\321\2541\301\277\212Y\035\243\266\271\275\277I\306\372\236B\002\327\277\202 \226\206GF\315\277\356\t\361\314\364`\305?HZ\030\214\213\357\323\277YW\310\006\031\233\317\277i\006Q\364I\271\323\277\230\250\321\360\325\252W? 6\261\360\220\352\330\277(6\177I\263\204\037@\tk\274\244\314n\305\277\226\222\362N\226n\340\277\265\256\265\035q\255\324\277>\310$\266\312\262\315\277<;\312\325Pi\266?q\274\000\320h\030\334\277\314\366[\032C)\304\277@\204\004\001<>\361?\341\202\246\004H\375\333\277\354i\020\261\204_\304\277\377m\206\203\323\216\326?g\232n\341\222\246\320\277\033\300\375\256?\361\345\277\025\311\214\364\370\326\366\277\266M\366qb?\333\277\0047>\322a\037\004\300Im\027\327NM\245\277\313?\206\3209&\276\277\211\"\273\n\335P\360?\221\374V%p\317\330\277=9\330\325\303;\342\277D\217\243/@\377\276\277\346\201\021\371\003\245\350\277\352\342Ro\357\025\245?\234\004\270\036Z\373\345?\274de\371\217\014\335\277\270\271\330\204\031R\336\277\022\'\222\020.\342\311\277\254\351c\006v\361\312\277x,\334\020\350\256\303?\330\223rW\254\n\324\277uw\201\270\311\355\345?\343>y%\267\220\337?H\300\324\016\000\356\332\277\263B\323\n\272\232\321\277h\277\312\256o8\315?\3109\3511U&\246\277\321#\227\026-t\274\277K\377~p\277\225\326\277\234\017\036Y8:\351\277<\360_\220\\\215\307\277\225}\357 \212\n\276?\223Yn}\031\333\340\277B\037\333\033D\267\264?\220\255\006\3376\276\322?\230q\270.\263\n\302\277r(\343\342\037+\337\277\313?\206\3209&\276\277K\377~p\277\225\326\2776W\271\217]\033\270?\372F#\210\273\246\351\277\223\205\313\004\245\343\330?\372y\201\311\365%\355\277\332\014G\302\204\376\023@Q\360hq3M\275\277\354i\020\261\204_\304\277\337;2\242)\305\300\277;V\034\023\321\213\316\277\323\265\207\241\373\320\321\277S\014 \024E\354\352\277\237U\311t\246X\300\277\177H\321`\331 \307\277\245\376^0\326$\361\277q\274\000\320h\030\334\277\261 \273ux\364\322?\365pPb\332\256\267?\025\254\241o3.\342\277v\255\362A%w\347?\334\273\'\213\322\260\332?\2443+9\371}\316?b\370K5\372\353\273?{\236\344\263\341\325\302?V\031G^6w\302\277\327\315Ha7\\\355\277\300\t\314\335\303\262\337\277r(\343\342\037+\337\277\274R\207\366`\373\343\277\225J\032\321\255\277\261?\321\271k\241\025,\252?\022\301\325\215\271\343\302\277\025~Hv\247\346\260?\326cXN\rw\276?\236{\000l\357L\354\277%\2307u\210\271\355\277\243bC\007\302\355\315?x\270\'\214\211\304\363?\360#:\250\035.\316?\330\211+d7\036\324?\237\334|D\310 \354?\332\034\3476\341\036\324?\336F\332\370\331\351\203?x\346v\023\242\n\347?8\373\010\236pf\264\277\214%\3447\020h\354\277.\205\017>\367\362\346\277!\320\364m\034\354\321\277\326cXN\rw\276?\"\250\267\222_7\231?Gq\204\310\306\334\324?\374\261\263bd\373\322\2775\014OJi?\311\277\223\270)F\337b\334?F\203b\313\365\355\355?\\c\024\'\236\303\307\277\253\270\200\266&D\341?\000t\254\023\026\243\322?\274de\371\217\014\335\277\010\030tz\222\377\237?\016}\245c6\227\305?l\253\267\330}_\326\277\346x\242wl\034\364\277\376\221Tl\355\371\263\277\334Gi\224\000\305\274?\002\303\374YO\264\330\277\000W\032G\230\241\325\27724\212$\373\031\303\277\327`\024\026r\213\320\277\365\'a\016\321\244\342?\022\'\222\020.\342\311\277\355o\255Oi_\314?u\214\373\364w\255\302\277<8\373\252,o\222?\021\n\000D\260\340\274\277\321\271k\241\025,\252?%\305K`\010\023\325?\326Z\356\205/w\324\277\\c\024\'\236\303\307\277\0073\330\232\316J\300?\310\322\214\347a\330\247\277p\240\016\313i\206\331?h\334\\{\3559\272?q\252\"\3159\007\343\277I\306\372\236B\002\327\277\261\377:7m\206\350?U\177\003\341\252u\311\277\233\3133M\335g\346?\317\264\212\037\337\241\001\300\010\030tz\222\377\237?\250w[c|\312\313\277\362\270k\263\370\207\341?\027\327\254\276\260x\340?\004hc>\203Z\333\277$\017\024\335R\205\227?\310\322\214\347a\330\247\277U\2423\003q+\210\277\321#\227\026-t\274\277]\254T\302\246\235\302?\212,7\360!\343\312\277\331\330\260\234@\231\001@\260\270`\362\004\227\264\277\344\376\360\341\374\037\361\277<k@O\306\242\312\277\032BT5\317\276\326\277RD\201\234\002\351\335\277\205@)\270*\031\266\277H\355\234k:0\220?H\355\234k:0\220?m\253\252\256{\217\345?\344r&\347p\337\303?\210\213<F\002\370\321\277]%\275G\264_\327\277\251\r\322|cB\331\277\256\275z\325\375\365\372\277H\270Q\343,\354\335?\273@D\310K\'\354\277\315E\266\322\357{\003@k\202E\321EK\003\300h\271\253\330\021\247\315\277\025\014&\177\251\257\345?;\265\337L\337\372\323\277\240\236\275\201i\013\357\277K;\315\263\246*\342?\032-\356\334\007\002\331\277\210$\214\374\200\033\301?r\344\206\201\334u\320\277\200\220\377\336zx\361\277\251\020\200\231\236\031\323\277=\017\375\371\007\350\311?#\274\325$\214\027\341\277\372\244\374l0\t\336\277\270\367Rs\0273\222?\265\226\331R\315i\n@g\372sq\036-\364?r?\274\273\211\352\362\277\251\311\216\270\300\230\303\277r6\321r\226\225\263\277\367j\274~\005<\344\277\260\270`\362\004\227\264\277\211\210\242\r\256\243\264?\351\275;vs\230\265\277\340+H\240\262\227\003\300\035\224\036\360:G\373?\353\010O\004Kw\321\277"
      }
    }
  }
}
node {
  name: "tensors/component_3"
  op: "Const"
  device: "/device:CPU:0"
  attr {
    key: "_output_shapes"
    value {
      list {
        shape {
          dim {
            size: 243
          }
        }
      }
    }
  }
  attr {
    key: "dtype"
    value {
      type: DT_DOUBLE
    }
  }
  attr {
    key: "value"
    value {
      tensor {
        dtype: DT_DOUBLE
        tensor_shape {
          dim {
            size: 243
          }
        }
        tensor_content: "\374w@\203\224\262\323\277\003\253\367\017z\032\326\277N\332\216\210\255\311\366\277\003\253\367\017z\032\326\277\236 G\371\2354\313\277\337\253\201\246X\247\010@2Y#U\360\250\324\277\326\241\363J\364\252\341\277>\353\352\363\360\034\255?\240\241\330:\323\254\344\277\242\270\023\207\224\350j\277\307\375\024\265\236\313\344\277A\277\221n\273x\331\277\356_\245\367\227!\244?$Zl?\213\350\341\277\025\243\341\246\234u\300\277y\266\017\305Y\333\317\277\374\361\243\211\223U\332?\204v\344\316\240/\303\2773\300\332XV\270\346\277DE\324\370\020J\314?C\223\267hp\267\005@\332*\356c\370\224\227?t\235\314\223\371\264\342\2772r\215\004W\317\300\277\236L\346\234\373\362\326\277\303\010\327_SX\376?F\235\3632\016\036\341\277\341\322;Y\215L\300\277e.\'\243\365p\311\277\252U!\t\356\214\320?\222<\310\314\264~\363?\024Q\222\374(=\352?\313\270\327\271\321V\324\277\332\036F\323\234&\331\277\230\016\204\001\327\027\354\277\364d\340{\335\364\277\277\221\244\343\353\344l\272?;\242uf\030}\314\277\243=c\001A0\330\277IgN\001\252\344\315?U\310\270\211*\241\304\277\366\204\265\311\222\235\340?\207`\357\332\2627\267?=\207\263\324\3321\220\277\001\246b\034\211\273\223?\201\344hQI\244\335\277w4_<\273\300\343\277:m\254\025\2042\022\300\312{\300/:\372\032@c$4\257\016s\222?a\007O\232f7\323\277\2655M\230c\213\302\277Q\017\234\366>\234\226\277\215\001\363?\342\037\206\277\272\250\343\037 \311\340\277\3623Lrb}\320\277\302\351\350\256\250%\303?\204\250\310\017\377\312\343\277\206\271\005\224K\230\344\277*\224\'>\256u\232\277)R\374@;\245\243\277\341\345\347[&\340\344\2777\364\220\325\037\014\005\300\275\307n\246\017\213\301?n]\336\332\221\333\372\277\nr\231\230\003\324\341\277x\212\020\257\317\302\222\277F\346iwJ\262\317\277F\341\013wT\023\333\277\217w\ncR\266\331\277\333\010\342AUz\221\277\035UZ:w\037\336\277\"\370\022<\033x\304\277p\273\344@\216\224\342?\000\2100\210\214jh?aO\316_\007?\351\277\025\243\341\246\234u\300\277\377\375\202\r\352\203\306?\r\364I!\242\356\315\277\244\331\232\177\204\371\266\277^%\001e\261\357\340?Lx\213\205\366\261\316?\246N\240\205\215\375\330\277\342GA_\226P\322?\034\257\020\273\216\277\360?P%\000\210\206H\336\277\374\354E\211\235\266\305?\256\277\307\216\375t\323\277<\235\027f\"\336\327\277\307\342C\3703\226r\277\037\037\016\301Z}\243?\253p\032\216&\230\332\277or\033\264\'\246\314\277\226\027!\273Y\263\342?\222\0167)\312\232\350\277;_\247\351\227\316\337\277\003\253\367\017z\032\326\277*+\312\310\000\340\306\277S\267{\005\336\323\303\277*\004\230P\306\032\272?j)o3TF\276?Bwe\361D+\330?WQ\017\023\005s\021@\205\212\356|\346d\373?[\247d\025C\215\331\2777\365\000d\210\346\334?8\027\325\333\314\014\265\277\201e\247JTb\302\277O\271\352\203*\232\347\277p\273\344@\216\224\342?\"\370\022<\033x\304\277\336t\r+\303\345\355\277\235\220\233\266\206\337\343\277\215\001\363?\342\037\206\277=\332\344b\237\017\252\277\003\253\367\017z\032\326\277?f(m\370]\327?!W}\275\341\017\301?\326\"\036`\030v\357\277\3739\320\006\n\243\333\277\377\226\310Q\365\325\363?\275\203\375\251\201\376\276\2779 \305\335yb\340\277\250d;\n\320i\316\277\374w@\203\224\262\323\277\361\365\333\365\327m\330\277\010\312\177\336\332=\366?,\277\004U@M\364\2770\275\353\326\254\337\305?\245S\376\205\203\234\315\277\000\2100\210\214jh?h:\006\'L\237\325\277\257\300v\201\251\356\344\277\352\327\316\336\266B\305\277BV\323\317}\364\325?](\245\017y\245\241\277<\"y\303\212^\350?\311\212\036N\031\305\356?b|T\240o;\305?\341\237$\355\336\033\346?D\034X\177e$\014@\364I\347\366\244\351\305\2771\033\263\330e\231\334\2779\273\3110m\226\345?\211\230^\3279\312\304\277\307\323*\256\265\355\244\277:\214\332\341\325\020\327\277S\t\366/\256\030\364?\2401\204}\352\001\314\277g\257\270\344*\351\342\277LA\366\373w\275\324\277\356\246.\365\000\221\337\277\000\237\030\214#\354\311\277\033\271\"\2743V\317?\2339\233\303\362M\344?s\0322\266\301\235\267\277G;\030\370$\014\263?\003\010\255\364\313A\213\277\366\027V\376p\010\332\277\275h\004%I\363\304\277\365\271\216\374\267N\303?\316\201\350\300\247\326\323?\270\230\004G\200\235\363?\026\276\332+\325\200\272\277Q\376\225e\355\216\203\277\236 G\371\2354\313\277X\305\026\340\215E\347?\376Y\230*\275\323\000\300|\020\026\326\014\227\346?\330\223\370\220{p\346\277\2339\233\303\362M\344?K\204\304x\370k\301\277e\227\204\030\243\006\235\2774\270\207f\231\003\340?\356x\211m/\362\340\277\231\371n\360\016\373\324\277\032\261|\201L\347\343?oK\351;\355\340\277?V\323\021\232\006\200\342?\363\"\265~j$\271?\033\340T4n\033\274\277\225s,f\271)\262\277\205\353\351\324\2513\325?\374\361\243\211\223U\332?\316\201\350\300\247\326\323?V,~SX9\365\2771^\201U\346G\311\277\202\267!u$\247\362?\025\243\341\246\234u\300\277\302\351\350\256\250%\303?9\2218\342\313\257\313\277\211\230^\3279\312\304\277\244\263sj\314\033\371?\004c\313\222\003\315\324?U\'#\013\3618\301?T\245\363\002hk\305\277\205M#\201\224\345\336\277qBm\220S(\352?\262\006\035\344]D\327\277\345K\274\304\327\205\n\300\274~\211\304y\302\343?*\373\002\010\214f\270\277\350\025\226\022^\217\235?\337\245~%*0\312\277\n\240Zu\004\215\277?\371\005\271`\260\350\320\277d\273W\272v\212\340?}A\262P\320\275\362?e\340\362\353\226\303\332\277l\r\332\350\362\257\345\277P\343\004\304)\025\270\277\263\372\331~\350\000\367\277\317\251\357\3620\021\304?\341\036\232e\216\246\314?b|m=\020\327\357?P\343\004\304)\025\270\277\302\014\305\321\340\254\256?_\371\177\027\256)\002@W1_\325\216_\306\277~\337\265\007\376\320\322\277\274\271\0262\371\024\333\277BL\025\316f|\307\277\014\247\203\367\2009\252?\227\272\2509 \331\227\277\344\274\021s\317\016\212?\241\313\035\373.\354\301\277t\304\335\375J\027\255\277\274r74\327\334\321\277\236\247\004;3\216\355\277\335\356n0\227V\001@\277\251u\0069\270\010@\261\251:~\204\036\366?i\334\226&wD\005\300\335\271D\266r}\221\277\364\354\020\004j_\323\277\333&G\307\3666\337\277\346)\\\243\246\334\304?0\210\\1\242;\277?I\224\026^\344\266\355\277\364\'\255\234\026T\374\277\324Q\'\003\264\253\317?\004^8\240=H\242\277"
      }
    }
  }
}
node {
  name: "tensors/component_4"
  op: "Const"
  device: "/device:CPU:0"
  attr {
    key: "_output_shapes"
    value {
      list {
        shape {
          dim {
            size: 243
          }
        }
      }
    }
  }
  attr {
    key: "dtype"
    value {
      type: DT_INT64
    }
  }
  attr {
    key: "value"
    value {
      tensor {
        dtype: DT_INT64
        tensor_shape {
          dim {
            size: 243
          }
        }
        tensor_content: "k\000\000\000\000\000\000\000t\000\000\000\000\000\000\000g\000\000\000\000\000\000\000\200\000\000\000\000\000\000\000l\000\000\000\000\000\000\000Z\000\000\000\000\000\000\000[\000\000\000\000\000\000\000g\000\000\000\000\000\000\000g\000\000\000\000\000\000\000t\000\000\000\000\000\000\000\200\000\000\000\000\000\000\000g\000\000\000\000\000\000\000g\000\000\000\000\000\000\000q\000\000\000\000\000\000\000Z\000\000\000\000\000\000\000t\000\000\000\000\000\000\000p\000\000\000\000\000\000\000Z\000\000\000\000\000\000\000k\000\000\000\000\000\000\000g\000\000\000\000\000\000\000q\000\000\000\000\000\000\000Z\000\000\000\000\000\000\000Q\000\000\000\000\000\000\000[\000\000\000\000\000\000\000\200\000\000\000\000\000\000\000k\000\000\000\000\000\000\000g\000\000\000\000\000\000\000g\000\000\000\000\000\000\000\200\000\000\000\000\000\000\000p\000\000\000\000\000\000\000g\000\000\000\000\000\000\000Z\000\000\000\000\000\000\000q\000\000\000\000\000\000\000[\000\000\000\000\000\000\000k\000\000\000\000\000\000\000g\000\000\000\000\000\000\000p\000\000\000\000\000\000\000Q\000\000\000\000\000\000\000g\000\000\000\000\000\000\000[\000\000\000\000\000\000\000k\000\000\000\000\000\000\000\200\000\000\000\000\000\000\000p\000\000\000\000\000\000\000Q\000\000\000\000\000\000\000l\000\000\000\000\000\000\000q\000\000\000\000\000\000\000[\000\000\000\000\000\000\000g\000\000\000\000\000\000\000g\000\000\000\000\000\000\000Z\000\000\000\000\000\000\000q\000\000\000\000\000\000\000\200\000\000\000\000\000\000\000p\000\000\000\000\000\000\000t\000\000\000\000\000\000\000Q\000\000\000\000\000\000\000t\000\000\000\000\000\000\000l\000\000\000\000\000\000\000Z\000\000\000\000\000\000\000[\000\000\000\000\000\000\000k\000\000\000\000\000\000\000g\000\000\000\000\000\000\000\200\000\000\000\000\000\000\000p\000\000\000\000\000\000\000g\000\000\000\000\000\000\000l\000\000\000\000\000\000\000Z\000\000\000\000\000\000\000[\000\000\000\000\000\000\000k\000\000\000\000\000\000\000t\000\000\000\000\000\000\000g\000\000\000\000\000\000\000\200\000\000\000\000\000\000\000p\000\000\000\000\000\000\000g\000\000\000\000\000\000\000l\000\000\000\000\000\000\000Z\000\000\000\000\000\000\000q\000\000\000\000\000\000\000[\000\000\000\000\000\000\000k\000\000\000\000\000\000\000t\000\000\000\000\000\000\000g\000\000\000\000\000\000\000\200\000\000\000\000\000\000\000p\000\000\000\000\000\000\000Q\000\000\000\000\000\000\000g\000\000\000\000\000\000\000l\000\000\000\000\000\000\000q\000\000\000\000\000\000\000[\000\000\000\000\000\000\000k\000\000\000\000\000\000\000g\000\000\000\000\000\000\000\200\000\000\000\000\000\000\000p\000\000\000\000\000\000\000Q\000\000\000\000\000\000\000g\000\000\000\000\000\000\000l\000\000\000\000\000\000\000Z\000\000\000\000\000\000\000q\000\000\000\000\000\000\000[\000\000\000\000\000\000\000k\000\000\000\000\000\000\000t\000\000\000\000\000\000\000g\000\000\000\000\000\000\000\200\000\000\000\000\000\000\000Q\000\000\000\000\000\000\000g\000\000\000\000\000\000\000Z\000\000\000\000\000\000\000q\000\000\000\000\000\000\000[\000\000\000\000\000\000\000k\000\000\000\000\000\000\000t\000\000\000\000\000\000\000g\000\000\000\000\000\000\000\200\000\000\000\000\000\000\000p\000\000\000\000\000\000\000Q\000\000\000\000\000\000\000g\000\000\000\000\000\000\000[\000\000\000\000\000\000\000t\000\000\000\000\000\000\000g\000\000\000\000\000\000\000\200\000\000\000\000\000\000\000p\000\000\000\000\000\000\000Q\000\000\000\000\000\000\000Z\000\000\000\000\000\000\000q\000\000\000\000\000\000\000[\000\000\000\000\000\000\000k\000\000\000\000\000\000\000t\000\000\000\000\000\000\000g\000\000\000\000\000\000\000p\000\000\000\000\000\000\000g\000\000\000\000\000\000\000l\000\000\000\000\000\000\000q\000\000\000\000\000\000\000k\000\000\000\000\000\000\000g\000\000\000\000\000\000\000p\000\000\000\000\000\000\000g\000\000\000\000\000\000\000t\000\000\000\000\000\000\000t\000\000\000\000\000\000\000q\000\000\000\000\000\000\000Q\000\000\000\000\000\000\000t\000\000\000\000\000\000\000Z\000\000\000\000\000\000\000Q\000\000\000\000\000\000\000q\000\000\000\000\000\000\000[\000\000\000\000\000\000\000k\000\000\000\000\000\000\000t\000\000\000\000\000\000\000g\000\000\000\000\000\000\000p\000\000\000\000\000\000\000Q\000\000\000\000\000\000\000l\000\000\000\000\000\000\000q\000\000\000\000\000\000\000[\000\000\000\000\000\000\000k\000\000\000\000\000\000\000t\000\000\000\000\000\000\000g\000\000\000\000\000\000\000k\000\000\000\000\000\000\000t\000\000\000\000\000\000\000g\000\000\000\000\000\000\000\200\000\000\000\000\000\000\000p\000\000\000\000\000\000\000Q\000\000\000\000\000\000\000g\000\000\000\000\000\000\000Z\000\000\000\000\000\000\000q\000\000\000\000\000\000\000t\000\000\000\000\000\000\000g\000\000\000\000\000\000\000\200\000\000\000\000\000\000\000p\000\000\000\000\000\000\000Q\000\000\000\000\000\000\000g\000\000\000\000\000\000\000l\000\000\000\000\000\000\000[\000\000\000\000\000\000\000t\000\000\000\000\000\000\000g\000\000\000\000\000\000\000\200\000\000\000\000\000\000\000Q\000\000\000\000\000\000\000Z\000\000\000\000\000\000\000[\000\000\000\000\000\000\000k\000\000\000\000\000\000\000t\000\000\000\000\000\000\000p\000\000\000\000\000\000\000g\000\000\000\000\000\000\000[\000\000\000\000\000\000\000\200\000\000\000\000\000\000\000p\000\000\000\000\000\000\000g\000\000\000\000\000\000\000l\000\000\000\000\000\000\000Z\000\000\000\000\000\000\000q\000\000\000\000\000\000\000[\000\000\000\000\000\000\000k\000\000\000\000\000\000\000t\000\000\000\000\000\000\000g\000\000\000\000\000\000\000\200\000\000\000\000\000\000\000p\000\000\000\000\000\000\000g\000\000\000\000\000\000\000Z\000\000\000\000\000\000\000q\000\000\000\000\000\000\000Q\000\000\000\000\000\000\000g\000\000\000\000\000\000\000l\000\000\000\000\000\000\000q\000\000\000\000\000\000\000[\000\000\000\000\000\000\000k\000\000\000\000\000\000\000\200\000\000\000\000\000\000\000p\000\000\000\000\000\000\000Q\000\000\000\000\000\000\000g\000\000\000\000\000\000\000l\000\000\000\000\000\000\000Z\000\000\000\000\000\000\000q\000\000\000\000\000\000\000k\000\000\000\000\000\000\000g\000\000\000\000\000\000\000\200\000\000\000\000\000\000\000p\000\000\000\000\000\000\000Q\000\000\000\000\000\000\000g\000\000\000\000\000\000\000l\000\000\000\000\000\000\000Z\000\000\000\000\000\000\000q\000\000\000\000\000\000\000[\000\000\000\000\000\000\000k\000\000\000\000\000\000\000t\000\000\000\000\000\000\000g\000\000\000\000\000\000\000p\000\000\000\000\000\000\000Q\000\000\000\000\000\000\000g\000\000\000\000\000\000\000Z\000\000\000\000\000\000\000[\000\000\000\000\000\000\000t\000\000\000\000\000\000\000\200\000\000\000\000\000\000\000p\000\000\000\000\000\000\000g\000\000\000\000\000\000\000l\000\000\000\000\000\000\000Z\000\000\000\000\000\000\000[\000\000\000\000\000\000\000k\000\000\000\000\000\000\000g\000\000\000\000\000\000\000\200\000\000\000\000\000\000\000p\000\000\000\000\000\000\000Q\000\000\000\000\000\000\000l\000\000\000\000\000\000\000Z\000\000\000\000\000\000\000q\000\000\000\000\000\000\000[\000\000\000\000\000\000\000"
      }
    }
  }
}
node {
  name: "tensors/component_5"
  op: "Const"
  device: "/device:CPU:0"
  attr {
    key: "_output_shapes"
    value {
      list {
        shape {
          dim {
            size: 243
          }
        }
      }
    }
  }
  attr {
    key: "dtype"
    value {
      type: DT_INT64
    }
  }
  attr {
    key: "value"
    value {
      tensor {
        dtype: DT_INT64
        tensor_shape {
          dim {
            size: 243
          }
        }
        tensor_content: "\022\000\000\000\000\000\000\000\023\000\000\000\000\000\000\000\024\000\000\000\000\000\000\000\026\000\000\000\000\000\000\000\022\000\000\000\000\000\000\000\024\000\000\000\000\000\000\000\022\000\000\000\000\000\000\000\024\000\000\000\000\000\000\000\025\000\000\000\000\000\000\000\023\000\000\000\000\000\000\000\026\000\000\000\000\000\000\000\024\000\000\000\000\000\000\000\024\000\000\000\000\000\000\000\025\000\000\000\000\000\000\000\024\000\000\000\000\000\000\000\023\000\000\000\000\000\000\000\023\000\000\000\000\000\000\000\024\000\000\000\000\000\000\000\022\000\000\000\000\000\000\000\025\000\000\000\000\000\000\000\025\000\000\000\000\000\000\000\024\000\000\000\000\000\000\000\025\000\000\000\000\000\000\000\022\000\000\000\000\000\000\000\026\000\000\000\000\000\000\000\022\000\000\000\000\000\000\000\024\000\000\000\000\000\000\000\025\000\000\000\000\000\000\000\026\000\000\000\000\000\000\000\023\000\000\000\000\000\000\000\025\000\000\000\000\000\000\000\024\000\000\000\000\000\000\000\025\000\000\000\000\000\000\000\022\000\000\000\000\000\000\000\022\000\000\000\000\000\000\000\024\000\000\000\000\000\000\000\023\000\000\000\000\000\000\000\025\000\000\000\000\000\000\000\025\000\000\000\000\000\000\000\022\000\000\000\000\000\000\000\022\000\000\000\000\000\000\000\026\000\000\000\000\000\000\000\023\000\000\000\000\000\000\000\025\000\000\000\000\000\000\000\022\000\000\000\000\000\000\000\025\000\000\000\000\000\000\000\022\000\000\000\000\000\000\000\024\000\000\000\000\000\000\000\025\000\000\000\000\000\000\000\024\000\000\000\000\000\000\000\025\000\000\000\000\000\000\000\026\000\000\000\000\000\000\000\023\000\000\000\000\000\000\000\023\000\000\000\000\000\000\000\025\000\000\000\000\000\000\000\023\000\000\000\000\000\000\000\022\000\000\000\000\000\000\000\024\000\000\000\000\000\000\000\022\000\000\000\000\000\000\000\022\000\000\000\000\000\000\000\024\000\000\000\000\000\000\000\026\000\000\000\000\000\000\000\023\000\000\000\000\000\000\000\025\000\000\000\000\000\000\000\022\000\000\000\000\000\000\000\024\000\000\000\000\000\000\000\022\000\000\000\000\000\000\000\022\000\000\000\000\000\000\000\023\000\000\000\000\000\000\000\024\000\000\000\000\000\000\000\026\000\000\000\000\000\000\000\023\000\000\000\000\000\000\000\025\000\000\000\000\000\000\000\022\000\000\000\000\000\000\000\024\000\000\000\000\000\000\000\025\000\000\000\000\000\000\000\022\000\000\000\000\000\000\000\022\000\000\000\000\000\000\000\023\000\000\000\000\000\000\000\024\000\000\000\000\000\000\000\026\000\000\000\000\000\000\000\023\000\000\000\000\000\000\000\025\000\000\000\000\000\000\000\025\000\000\000\000\000\000\000\022\000\000\000\000\000\000\000\025\000\000\000\000\000\000\000\022\000\000\000\000\000\000\000\022\000\000\000\000\000\000\000\024\000\000\000\000\000\000\000\026\000\000\000\000\000\000\000\023\000\000\000\000\000\000\000\025\000\000\000\000\000\000\000\025\000\000\000\000\000\000\000\022\000\000\000\000\000\000\000\024\000\000\000\000\000\000\000\025\000\000\000\000\000\000\000\022\000\000\000\000\000\000\000\022\000\000\000\000\000\000\000\023\000\000\000\000\000\000\000\024\000\000\000\000\000\000\000\026\000\000\000\000\000\000\000\025\000\000\000\000\000\000\000\025\000\000\000\000\000\000\000\024\000\000\000\000\000\000\000\025\000\000\000\000\000\000\000\022\000\000\000\000\000\000\000\022\000\000\000\000\000\000\000\023\000\000\000\000\000\000\000\024\000\000\000\000\000\000\000\026\000\000\000\000\000\000\000\023\000\000\000\000\000\000\000\025\000\000\000\000\000\000\000\025\000\000\000\000\000\000\000\022\000\000\000\000\000\000\000\023\000\000\000\000\000\000\000\024\000\000\000\000\000\000\000\026\000\000\000\000\000\000\000\023\000\000\000\000\000\000\000\025\000\000\000\000\000\000\000\024\000\000\000\000\000\000\000\025\000\000\000\000\000\000\000\022\000\000\000\000\000\000\000\022\000\000\000\000\000\000\000\023\000\000\000\000\000\000\000\024\000\000\000\000\000\000\000\023\000\000\000\000\000\000\000\025\000\000\000\000\000\000\000\022\000\000\000\000\000\000\000\025\000\000\000\000\000\000\000\022\000\000\000\000\000\000\000\024\000\000\000\000\000\000\000\023\000\000\000\000\000\000\000\025\000\000\000\000\000\000\000\023\000\000\000\000\000\000\000\023\000\000\000\000\000\000\000\025\000\000\000\000\000\000\000\025\000\000\000\000\000\000\000\023\000\000\000\000\000\000\000\024\000\000\000\000\000\000\000\025\000\000\000\000\000\000\000\025\000\000\000\000\000\000\000\022\000\000\000\000\000\000\000\022\000\000\000\000\000\000\000\023\000\000\000\000\000\000\000\024\000\000\000\000\000\000\000\023\000\000\000\000\000\000\000\025\000\000\000\000\000\000\000\022\000\000\000\000\000\000\000\025\000\000\000\000\000\000\000\022\000\000\000\000\000\000\000\022\000\000\000\000\000\000\000\023\000\000\000\000\000\000\000\024\000\000\000\000\000\000\000\022\000\000\000\000\000\000\000\023\000\000\000\000\000\000\000\024\000\000\000\000\000\000\000\026\000\000\000\000\000\000\000\023\000\000\000\000\000\000\000\025\000\000\000\000\000\000\000\025\000\000\000\000\000\000\000\024\000\000\000\000\000\000\000\025\000\000\000\000\000\000\000\023\000\000\000\000\000\000\000\024\000\000\000\000\000\000\000\026\000\000\000\000\000\000\000\023\000\000\000\000\000\000\000\025\000\000\000\000\000\000\000\025\000\000\000\000\000\000\000\022\000\000\000\000\000\000\000\022\000\000\000\000\000\000\000\023\000\000\000\000\000\000\000\024\000\000\000\000\000\000\000\026\000\000\000\000\000\000\000\025\000\000\000\000\000\000\000\024\000\000\000\000\000\000\000\022\000\000\000\000\000\000\000\022\000\000\000\000\000\000\000\023\000\000\000\000\000\000\000\023\000\000\000\000\000\000\000\025\000\000\000\000\000\000\000\022\000\000\000\000\000\000\000\026\000\000\000\000\000\000\000\023\000\000\000\000\000\000\000\025\000\000\000\000\000\000\000\022\000\000\000\000\000\000\000\024\000\000\000\000\000\000\000\025\000\000\000\000\000\000\000\022\000\000\000\000\000\000\000\022\000\000\000\000\000\000\000\023\000\000\000\000\000\000\000\024\000\000\000\000\000\000\000\026\000\000\000\000\000\000\000\023\000\000\000\000\000\000\000\025\000\000\000\000\000\000\000\024\000\000\000\000\000\000\000\025\000\000\000\000\000\000\000\025\000\000\000\000\000\000\000\025\000\000\000\000\000\000\000\022\000\000\000\000\000\000\000\025\000\000\000\000\000\000\000\022\000\000\000\000\000\000\000\022\000\000\000\000\000\000\000\026\000\000\000\000\000\000\000\023\000\000\000\000\000\000\000\025\000\000\000\000\000\000\000\025\000\000\000\000\000\000\000\022\000\000\000\000\000\000\000\024\000\000\000\000\000\000\000\025\000\000\000\000\000\000\000\022\000\000\000\000\000\000\000\024\000\000\000\000\000\000\000\026\000\000\000\000\000\000\000\023\000\000\000\000\000\000\000\025\000\000\000\000\000\000\000\025\000\000\000\000\000\000\000\022\000\000\000\000\000\000\000\024\000\000\000\000\000\000\000\025\000\000\000\000\000\000\000\022\000\000\000\000\000\000\000\022\000\000\000\000\000\000\000\023\000\000\000\000\000\000\000\024\000\000\000\000\000\000\000\023\000\000\000\000\000\000\000\025\000\000\000\000\000\000\000\025\000\000\000\000\000\000\000\024\000\000\000\000\000\000\000\022\000\000\000\000\000\000\000\023\000\000\000\000\000\000\000\026\000\000\000\000\000\000\000\023\000\000\000\000\000\000\000\025\000\000\000\000\000\000\000\022\000\000\000\000\000\000\000\024\000\000\000\000\000\000\000\022\000\000\000\000\000\000\000\022\000\000\000\000\000\000\000\024\000\000\000\000\000\000\000\026\000\000\000\000\000\000\000\023\000\000\000\000\000\000\000\025\000\000\000\000\000\000\000\022\000\000\000\000\000\000\000\024\000\000\000\000\000\000\000\025\000\000\000\000\000\000\000\022\000\000\000\000\000\000\000"
      }
    }
  }
}
node {
  name: "tensors/component_6"
  op: "Const"
  device: "/device:CPU:0"
  attr {
    key: "_output_shapes"
    value {
      list {
        shape {
          dim {
            size: 243
          }
        }
      }
    }
  }
  attr {
    key: "dtype"
    value {
      type: DT_INT64
    }
  }
  attr {
    key: "value"
    value {
      tensor {
        dtype: DT_INT64
        tensor_shape {
          dim {
            size: 243
          }
        }
        tensor_content: "\024\000\000\000\000\000\000\000\014\000\000\000\000\000\000\000\005\000\000\000\000\000\000\000\007\000\000\000\000\000\000\000\016\000\000\000\000\000\000\000\013\000\000\000\000\000\000\000\n\000\000\000\000\000\000\000\005\000\000\000\000\000\000\000\024\000\000\000\000\000\000\000\014\000\000\000\000\000\000\000\007\000\000\000\000\000\000\000\005\000\000\000\000\000\000\000\005\000\000\000\000\000\000\000\r\000\000\000\000\000\000\000\013\000\000\000\000\000\000\000\014\000\000\000\000\000\000\000\n\000\000\000\000\000\000\000\013\000\000\000\000\000\000\000\024\000\000\000\000\000\000\000\024\000\000\000\000\000\000\000\r\000\000\000\000\000\000\000\013\000\000\000\000\000\000\000\013\000\000\000\000\000\000\000\n\000\000\000\000\000\000\000\007\000\000\000\000\000\000\000\024\000\000\000\000\000\000\000\005\000\000\000\000\000\000\000\024\000\000\000\000\000\000\000\007\000\000\000\000\000\000\000\n\000\000\000\000\000\000\000\024\000\000\000\000\000\000\000\013\000\000\000\000\000\000\000\r\000\000\000\000\000\000\000\n\000\000\000\000\000\000\000\024\000\000\000\000\000\000\000\005\000\000\000\000\000\000\000\n\000\000\000\000\000\000\000\013\000\000\000\000\000\000\000\024\000\000\000\000\000\000\000\n\000\000\000\000\000\000\000\024\000\000\000\000\000\000\000\007\000\000\000\000\000\000\000\n\000\000\000\000\000\000\000\013\000\000\000\000\000\000\000\016\000\000\000\000\000\000\000\r\000\000\000\000\000\000\000\n\000\000\000\000\000\000\000\005\000\000\000\000\000\000\000\024\000\000\000\000\000\000\000\013\000\000\000\000\000\000\000\r\000\000\000\000\000\000\000\007\000\000\000\000\000\000\000\n\000\000\000\000\000\000\000\014\000\000\000\000\000\000\000\013\000\000\000\000\000\000\000\014\000\000\000\000\000\000\000\016\000\000\000\000\000\000\000\013\000\000\000\000\000\000\000\n\000\000\000\000\000\000\000\024\000\000\000\000\000\000\000\005\000\000\000\000\000\000\000\007\000\000\000\000\000\000\000\n\000\000\000\000\000\000\000\024\000\000\000\000\000\000\000\016\000\000\000\000\000\000\000\013\000\000\000\000\000\000\000\n\000\000\000\000\000\000\000\024\000\000\000\000\000\000\000\014\000\000\000\000\000\000\000\005\000\000\000\000\000\000\000\007\000\000\000\000\000\000\000\n\000\000\000\000\000\000\000\024\000\000\000\000\000\000\000\016\000\000\000\000\000\000\000\013\000\000\000\000\000\000\000\r\000\000\000\000\000\000\000\n\000\000\000\000\000\000\000\024\000\000\000\000\000\000\000\014\000\000\000\000\000\000\000\005\000\000\000\000\000\000\000\007\000\000\000\000\000\000\000\n\000\000\000\000\000\000\000\013\000\000\000\000\000\000\000\024\000\000\000\000\000\000\000\016\000\000\000\000\000\000\000\r\000\000\000\000\000\000\000\n\000\000\000\000\000\000\000\024\000\000\000\000\000\000\000\005\000\000\000\000\000\000\000\007\000\000\000\000\000\000\000\n\000\000\000\000\000\000\000\013\000\000\000\000\000\000\000\024\000\000\000\000\000\000\000\016\000\000\000\000\000\000\000\013\000\000\000\000\000\000\000\r\000\000\000\000\000\000\000\n\000\000\000\000\000\000\000\024\000\000\000\000\000\000\000\014\000\000\000\000\000\000\000\005\000\000\000\000\000\000\000\007\000\000\000\000\000\000\000\013\000\000\000\000\000\000\000\024\000\000\000\000\000\000\000\013\000\000\000\000\000\000\000\r\000\000\000\000\000\000\000\n\000\000\000\000\000\000\000\024\000\000\000\000\000\000\000\014\000\000\000\000\000\000\000\005\000\000\000\000\000\000\000\007\000\000\000\000\000\000\000\n\000\000\000\000\000\000\000\013\000\000\000\000\000\000\000\024\000\000\000\000\000\000\000\n\000\000\000\000\000\000\000\014\000\000\000\000\000\000\000\005\000\000\000\000\000\000\000\007\000\000\000\000\000\000\000\n\000\000\000\000\000\000\000\013\000\000\000\000\000\000\000\013\000\000\000\000\000\000\000\r\000\000\000\000\000\000\000\n\000\000\000\000\000\000\000\024\000\000\000\000\000\000\000\014\000\000\000\000\000\000\000\005\000\000\000\000\000\000\000\n\000\000\000\000\000\000\000\024\000\000\000\000\000\000\000\016\000\000\000\000\000\000\000\r\000\000\000\000\000\000\000\024\000\000\000\000\000\000\000\005\000\000\000\000\000\000\000\n\000\000\000\000\000\000\000\024\000\000\000\000\000\000\000\014\000\000\000\000\000\000\000\014\000\000\000\000\000\000\000\r\000\000\000\000\000\000\000\013\000\000\000\000\000\000\000\014\000\000\000\000\000\000\000\013\000\000\000\000\000\000\000\013\000\000\000\000\000\000\000\r\000\000\000\000\000\000\000\n\000\000\000\000\000\000\000\024\000\000\000\000\000\000\000\014\000\000\000\000\000\000\000\005\000\000\000\000\000\000\000\n\000\000\000\000\000\000\000\013\000\000\000\000\000\000\000\016\000\000\000\000\000\000\000\r\000\000\000\000\000\000\000\n\000\000\000\000\000\000\000\024\000\000\000\000\000\000\000\014\000\000\000\000\000\000\000\005\000\000\000\000\000\000\000\024\000\000\000\000\000\000\000\014\000\000\000\000\000\000\000\005\000\000\000\000\000\000\000\007\000\000\000\000\000\000\000\n\000\000\000\000\000\000\000\013\000\000\000\000\000\000\000\024\000\000\000\000\000\000\000\013\000\000\000\000\000\000\000\r\000\000\000\000\000\000\000\014\000\000\000\000\000\000\000\005\000\000\000\000\000\000\000\007\000\000\000\000\000\000\000\n\000\000\000\000\000\000\000\013\000\000\000\000\000\000\000\024\000\000\000\000\000\000\000\016\000\000\000\000\000\000\000\n\000\000\000\000\000\000\000\014\000\000\000\000\000\000\000\005\000\000\000\000\000\000\000\007\000\000\000\000\000\000\000\013\000\000\000\000\000\000\000\013\000\000\000\000\000\000\000\n\000\000\000\000\000\000\000\024\000\000\000\000\000\000\000\014\000\000\000\000\000\000\000\n\000\000\000\000\000\000\000\024\000\000\000\000\000\000\000\n\000\000\000\000\000\000\000\007\000\000\000\000\000\000\000\n\000\000\000\000\000\000\000\024\000\000\000\000\000\000\000\016\000\000\000\000\000\000\000\013\000\000\000\000\000\000\000\r\000\000\000\000\000\000\000\n\000\000\000\000\000\000\000\024\000\000\000\000\000\000\000\014\000\000\000\000\000\000\000\005\000\000\000\000\000\000\000\007\000\000\000\000\000\000\000\n\000\000\000\000\000\000\000\024\000\000\000\000\000\000\000\013\000\000\000\000\000\000\000\r\000\000\000\000\000\000\000\013\000\000\000\000\000\000\000\024\000\000\000\000\000\000\000\016\000\000\000\000\000\000\000\r\000\000\000\000\000\000\000\n\000\000\000\000\000\000\000\024\000\000\000\000\000\000\000\007\000\000\000\000\000\000\000\n\000\000\000\000\000\000\000\013\000\000\000\000\000\000\000\024\000\000\000\000\000\000\000\016\000\000\000\000\000\000\000\013\000\000\000\000\000\000\000\r\000\000\000\000\000\000\000\024\000\000\000\000\000\000\000\005\000\000\000\000\000\000\000\007\000\000\000\000\000\000\000\n\000\000\000\000\000\000\000\013\000\000\000\000\000\000\000\024\000\000\000\000\000\000\000\016\000\000\000\000\000\000\000\013\000\000\000\000\000\000\000\r\000\000\000\000\000\000\000\n\000\000\000\000\000\000\000\024\000\000\000\000\000\000\000\014\000\000\000\000\000\000\000\005\000\000\000\000\000\000\000\n\000\000\000\000\000\000\000\013\000\000\000\000\000\000\000\024\000\000\000\000\000\000\000\013\000\000\000\000\000\000\000\n\000\000\000\000\000\000\000\014\000\000\000\000\000\000\000\007\000\000\000\000\000\000\000\n\000\000\000\000\000\000\000\024\000\000\000\000\000\000\000\016\000\000\000\000\000\000\000\013\000\000\000\000\000\000\000\n\000\000\000\000\000\000\000\024\000\000\000\000\000\000\000\005\000\000\000\000\000\000\000\007\000\000\000\000\000\000\000\n\000\000\000\000\000\000\000\013\000\000\000\000\000\000\000\016\000\000\000\000\000\000\000\013\000\000\000\000\000\000\000\r\000\000\000\000\000\000\000\n\000\000\000\000\000\000\000"
      }
    }
  }
}
node {
  name: "tensors/component_7"
  op: "Const"
  device: "/device:CPU:0"
  attr {
    key: "_output_shapes"
    value {
      list {
        shape {
          dim {
            size: 243
          }
        }
      }
    }
  }
  attr {
    key: "dtype"
    value {
      type: DT_INT64
    }
  }
  attr {
    key: "value"
    value {
      tensor {
        dtype: DT_INT64
        tensor_shape {
          dim {
            size: 243
          }
        }
        tensor_content: "\006\000\000\000\000\000\000\000\007\000\000\000\000\000\000\000\007\000\000\000\000\000\000\000\005\000\000\000\000\000\000\000\005\000\000\000\000\000\000\000\006\000\000\000\000\000\000\000\005\000\000\000\000\000\000\000\007\000\000\000\000\000\000\000\006\000\000\000\000\000\000\000\007\000\000\000\000\000\000\000\005\000\000\000\000\000\000\000\007\000\000\000\000\000\000\000\007\000\000\000\000\000\000\000\005\000\000\000\000\000\000\000\006\000\000\000\000\000\000\000\007\000\000\000\000\000\000\000\007\000\000\000\000\000\000\000\006\000\000\000\000\000\000\000\006\000\000\000\000\000\000\000\006\000\000\000\000\000\000\000\005\000\000\000\000\000\000\000\006\000\000\000\000\000\000\000\010\000\000\000\000\000\000\000\005\000\000\000\000\000\000\000\005\000\000\000\000\000\000\000\006\000\000\000\000\000\000\000\007\000\000\000\000\000\000\000\006\000\000\000\000\000\000\000\005\000\000\000\000\000\000\000\007\000\000\000\000\000\000\000\006\000\000\000\000\000\000\000\006\000\000\000\000\000\000\000\005\000\000\000\000\000\000\000\005\000\000\000\000\000\000\000\006\000\000\000\000\000\000\000\007\000\000\000\000\000\000\000\007\000\000\000\000\000\000\000\010\000\000\000\000\000\000\000\006\000\000\000\000\000\000\000\005\000\000\000\000\000\000\000\006\000\000\000\000\000\000\000\005\000\000\000\000\000\000\000\007\000\000\000\000\000\000\000\010\000\000\000\000\000\000\000\005\000\000\000\000\000\000\000\005\000\000\000\000\000\000\000\005\000\000\000\000\000\000\000\007\000\000\000\000\000\000\000\006\000\000\000\000\000\000\000\006\000\000\000\000\000\000\000\005\000\000\000\000\000\000\000\005\000\000\000\000\000\000\000\007\000\000\000\000\000\000\000\007\000\000\000\000\000\000\000\010\000\000\000\000\000\000\000\007\000\000\000\000\000\000\000\005\000\000\000\000\000\000\000\006\000\000\000\000\000\000\000\005\000\000\000\000\000\000\000\006\000\000\000\000\000\000\000\007\000\000\000\000\000\000\000\005\000\000\000\000\000\000\000\007\000\000\000\000\000\000\000\006\000\000\000\000\000\000\000\005\000\000\000\000\000\000\000\006\000\000\000\000\000\000\000\005\000\000\000\000\000\000\000\006\000\000\000\000\000\000\000\007\000\000\000\000\000\000\000\007\000\000\000\000\000\000\000\005\000\000\000\000\000\000\000\007\000\000\000\000\000\000\000\006\000\000\000\000\000\000\000\005\000\000\000\000\000\000\000\006\000\000\000\000\000\000\000\005\000\000\000\000\000\000\000\005\000\000\000\000\000\000\000\006\000\000\000\000\000\000\000\007\000\000\000\000\000\000\000\007\000\000\000\000\000\000\000\005\000\000\000\000\000\000\000\007\000\000\000\000\000\000\000\010\000\000\000\000\000\000\000\006\000\000\000\000\000\000\000\005\000\000\000\000\000\000\000\005\000\000\000\000\000\000\000\005\000\000\000\000\000\000\000\006\000\000\000\000\000\000\000\007\000\000\000\000\000\000\000\005\000\000\000\000\000\000\000\007\000\000\000\000\000\000\000\010\000\000\000\000\000\000\000\006\000\000\000\000\000\000\000\005\000\000\000\000\000\000\000\006\000\000\000\000\000\000\000\005\000\000\000\000\000\000\000\005\000\000\000\000\000\000\000\006\000\000\000\000\000\000\000\007\000\000\000\000\000\000\000\007\000\000\000\000\000\000\000\005\000\000\000\000\000\000\000\010\000\000\000\000\000\000\000\006\000\000\000\000\000\000\000\006\000\000\000\000\000\000\000\005\000\000\000\000\000\000\000\005\000\000\000\000\000\000\000\006\000\000\000\000\000\000\000\007\000\000\000\000\000\000\000\007\000\000\000\000\000\000\000\005\000\000\000\000\000\000\000\007\000\000\000\000\000\000\000\010\000\000\000\000\000\000\000\006\000\000\000\000\000\000\000\005\000\000\000\000\000\000\000\007\000\000\000\000\000\000\000\007\000\000\000\000\000\000\000\005\000\000\000\000\000\000\000\007\000\000\000\000\000\000\000\010\000\000\000\000\000\000\000\006\000\000\000\000\000\000\000\005\000\000\000\000\000\000\000\005\000\000\000\000\000\000\000\006\000\000\000\000\000\000\000\007\000\000\000\000\000\000\000\007\000\000\000\000\000\000\000\007\000\000\000\000\000\000\000\006\000\000\000\000\000\000\000\005\000\000\000\000\000\000\000\005\000\000\000\000\000\000\000\006\000\000\000\000\000\000\000\007\000\000\000\000\000\000\000\007\000\000\000\000\000\000\000\006\000\000\000\000\000\000\000\007\000\000\000\000\000\000\000\007\000\000\000\000\000\000\000\005\000\000\000\000\000\000\000\010\000\000\000\000\000\000\000\007\000\000\000\000\000\000\000\006\000\000\000\000\000\000\000\010\000\000\000\000\000\000\000\005\000\000\000\000\000\000\000\005\000\000\000\000\000\000\000\006\000\000\000\000\000\000\000\007\000\000\000\000\000\000\000\007\000\000\000\000\000\000\000\007\000\000\000\000\000\000\000\010\000\000\000\000\000\000\000\005\000\000\000\000\000\000\000\005\000\000\000\000\000\000\000\005\000\000\000\000\000\000\000\006\000\000\000\000\000\000\000\007\000\000\000\000\000\000\000\007\000\000\000\000\000\000\000\006\000\000\000\000\000\000\000\007\000\000\000\000\000\000\000\007\000\000\000\000\000\000\000\005\000\000\000\000\000\000\000\007\000\000\000\000\000\000\000\010\000\000\000\000\000\000\000\006\000\000\000\000\000\000\000\006\000\000\000\000\000\000\000\005\000\000\000\000\000\000\000\007\000\000\000\000\000\000\000\007\000\000\000\000\000\000\000\005\000\000\000\000\000\000\000\007\000\000\000\000\000\000\000\010\000\000\000\000\000\000\000\006\000\000\000\000\000\000\000\005\000\000\000\000\000\000\000\005\000\000\000\000\000\000\000\007\000\000\000\000\000\000\000\007\000\000\000\000\000\000\000\005\000\000\000\000\000\000\000\010\000\000\000\000\000\000\000\006\000\000\000\000\000\000\000\005\000\000\000\000\000\000\000\006\000\000\000\000\000\000\000\007\000\000\000\000\000\000\000\007\000\000\000\000\000\000\000\006\000\000\000\000\000\000\000\005\000\000\000\000\000\000\000\005\000\000\000\000\000\000\000\007\000\000\000\000\000\000\000\006\000\000\000\000\000\000\000\005\000\000\000\000\000\000\000\006\000\000\000\000\000\000\000\005\000\000\000\000\000\000\000\005\000\000\000\000\000\000\000\006\000\000\000\000\000\000\000\007\000\000\000\000\000\000\000\007\000\000\000\000\000\000\000\005\000\000\000\000\000\000\000\007\000\000\000\000\000\000\000\006\000\000\000\000\000\000\000\006\000\000\000\000\000\000\000\005\000\000\000\000\000\000\000\010\000\000\000\000\000\000\000\006\000\000\000\000\000\000\000\005\000\000\000\000\000\000\000\005\000\000\000\000\000\000\000\005\000\000\000\000\000\000\000\006\000\000\000\000\000\000\000\005\000\000\000\000\000\000\000\007\000\000\000\000\000\000\000\010\000\000\000\000\000\000\000\006\000\000\000\000\000\000\000\005\000\000\000\000\000\000\000\006\000\000\000\000\000\000\000\005\000\000\000\000\000\000\000\006\000\000\000\000\000\000\000\007\000\000\000\000\000\000\000\005\000\000\000\000\000\000\000\007\000\000\000\000\000\000\000\010\000\000\000\000\000\000\000\006\000\000\000\000\000\000\000\005\000\000\000\000\000\000\000\006\000\000\000\000\000\000\000\005\000\000\000\000\000\000\000\005\000\000\000\000\000\000\000\006\000\000\000\000\000\000\000\007\000\000\000\000\000\000\000\007\000\000\000\000\000\000\000\007\000\000\000\000\000\000\000\010\000\000\000\000\000\000\000\006\000\000\000\000\000\000\000\006\000\000\000\000\000\000\000\005\000\000\000\000\000\000\000\007\000\000\000\000\000\000\000\005\000\000\000\000\000\000\000\007\000\000\000\000\000\000\000\006\000\000\000\000\000\000\000\005\000\000\000\000\000\000\000\006\000\000\000\000\000\000\000\005\000\000\000\000\000\000\000\006\000\000\000\000\000\000\000\007\000\000\000\000\000\000\000\005\000\000\000\000\000\000\000\007\000\000\000\000\000\000\000\010\000\000\000\000\000\000\000\005\000\000\000\000\000\000\000\006\000\000\000\000\000\000\000\005\000\000\000\000\000\000\000\005\000\000\000\000\000\000\000"
      }
    }
  }
}
node {
  name: "tensors/component_8"
  op: "Const"
  device: "/device:CPU:0"
  attr {
    key: "_output_shapes"
    value {
      list {
        shape {
          dim {
            size: 243
          }
        }
      }
    }
  }
  attr {
    key: "dtype"
    value {
      type: DT_INT64
    }
  }
  attr {
    key: "value"
    value {
      tensor {
        dtype: DT_INT64
        tensor_shape {
          dim {
            size: 243
          }
        }
        tensor_content: "\000\000\000\000\000\000\000\000\001\000\000\000\000\000\000\000\000\000\000\000\000\000\000\000\001\000\000\000\000\000\000\000\001\000\000\000\000\000\000\000\000\000\000\000\000\000\000\000\000\000\000\000\000\000\000\000\000\000\000\000\000\000\000\000\001\000\000\000\000\000\000\000\001\000\000\000\000\000\000\000\001\000\000\000\000\000\000\000\000\000\000\000\000\000\000\000\000\000\000\000\000\000\000\000\000\000\000\000\000\000\000\000\000\000\000\000\000\000\000\000\001\000\000\000\000\000\000\000\000\000\000\000\000\000\000\000\000\000\000\000\000\000\000\000\000\000\000\000\000\000\000\000\001\000\000\000\000\000\000\000\000\000\000\000\000\000\000\000\000\000\000\000\000\000\000\000\000\000\000\000\000\000\000\000\000\000\000\000\000\000\000\000\001\000\000\000\000\000\000\000\000\000\000\000\000\000\000\000\000\000\000\000\000\000\000\000\001\000\000\000\000\000\000\000\001\000\000\000\000\000\000\000\000\000\000\000\000\000\000\000\001\000\000\000\000\000\000\000\000\000\000\000\000\000\000\000\000\000\000\000\000\000\000\000\000\000\000\000\000\000\000\000\000\000\000\000\000\000\000\000\000\000\000\000\000\000\000\000\000\000\000\000\000\000\000\000\000\000\000\000\000\000\000\000\001\000\000\000\000\000\000\000\000\000\000\000\000\000\000\000\000\000\000\000\000\000\000\000\001\000\000\000\000\000\000\000\000\000\000\000\000\000\000\000\000\000\000\000\000\000\000\000\001\000\000\000\000\000\000\000\000\000\000\000\000\000\000\000\000\000\000\000\000\000\000\000\000\000\000\000\000\000\000\000\001\000\000\000\000\000\000\000\000\000\000\000\000\000\000\000\000\000\000\000\000\000\000\000\001\000\000\000\000\000\000\000\000\000\000\000\000\000\000\000\001\000\000\000\000\000\000\000\000\000\000\000\000\000\000\000\001\000\000\000\000\000\000\000\001\000\000\000\000\000\000\000\000\000\000\000\000\000\000\000\000\000\000\000\000\000\000\000\000\000\000\000\000\000\000\000\000\000\000\000\000\000\000\000\001\000\000\000\000\000\000\000\000\000\000\000\000\000\000\000\001\000\000\000\000\000\000\000\001\000\000\000\000\000\000\000\000\000\000\000\000\000\000\000\000\000\000\000\000\000\000\000\000\000\000\000\000\000\000\000\001\000\000\000\000\000\000\000\000\000\000\000\000\000\000\000\001\000\000\000\000\000\000\000\000\000\000\000\000\000\000\000\001\000\000\000\000\000\000\000\001\000\000\000\000\000\000\000\000\000\000\000\000\000\000\000\000\000\000\000\000\000\000\000\000\000\000\000\000\000\000\000\000\000\000\000\000\000\000\000\001\000\000\000\000\000\000\000\000\000\000\000\000\000\000\000\001\000\000\000\000\000\000\000\000\000\000\000\000\000\000\000\000\000\000\000\000\000\000\000\001\000\000\000\000\000\000\000\001\000\000\000\000\000\000\000\000\000\000\000\000\000\000\000\000\000\000\000\000\000\000\000\000\000\000\000\000\000\000\000\000\000\000\000\000\000\000\000\001\000\000\000\000\000\000\000\000\000\000\000\000\000\000\000\000\000\000\000\000\000\000\000\001\000\000\000\000\000\000\000\001\000\000\000\000\000\000\000\000\000\000\000\000\000\000\000\000\000\000\000\000\000\000\000\000\000\000\000\000\000\000\000\000\000\000\000\000\000\000\000\001\000\000\000\000\000\000\000\000\000\000\000\000\000\000\000\001\000\000\000\000\000\000\000\000\000\000\000\000\000\000\000\001\000\000\000\000\000\000\000\000\000\000\000\000\000\000\000\000\000\000\000\000\000\000\000\000\000\000\000\000\000\000\000\000\000\000\000\000\000\000\000\001\000\000\000\000\000\000\000\000\000\000\000\000\000\000\000\001\000\000\000\000\000\000\000\000\000\000\000\000\000\000\000\000\000\000\000\000\000\000\000\001\000\000\000\000\000\000\000\000\000\000\000\000\000\000\000\001\000\000\000\000\000\000\000\000\000\000\000\000\000\000\000\001\000\000\000\000\000\000\000\000\000\000\000\000\000\000\000\000\000\000\000\000\000\000\000\000\000\000\000\000\000\000\000\000\000\000\000\000\000\000\000\000\000\000\000\000\000\000\000\000\000\000\000\000\000\000\000\001\000\000\000\000\000\000\000\000\000\000\000\000\000\000\000\000\000\000\000\000\000\000\000\001\000\000\000\000\000\000\000\001\000\000\000\000\000\000\000\000\000\000\000\000\000\000\000\000\000\000\000\000\000\000\000\000\000\000\000\000\000\000\000\000\000\000\000\000\000\000\000\001\000\000\000\000\000\000\000\001\000\000\000\000\000\000\000\001\000\000\000\000\000\000\000\000\000\000\000\000\000\000\000\000\000\000\000\000\000\000\000\001\000\000\000\000\000\000\000\000\000\000\000\000\000\000\000\000\000\000\000\000\000\000\000\000\000\000\000\000\000\000\000\000\000\000\000\000\000\000\000\000\000\000\000\000\000\000\000\001\000\000\000\000\000\000\000\000\000\000\000\000\000\000\000\000\000\000\000\000\000\000\000\000\000\000\000\000\000\000\000\001\000\000\000\000\000\000\000\000\000\000\000\000\000\000\000\000\000\000\000\000\000\000\000\000\000\000\000\000\000\000\000\001\000\000\000\000\000\000\000\000\000\000\000\000\000\000\000\000\000\000\000\000\000\000\000\001\000\000\000\000\000\000\000\000\000\000\000\000\000\000\000\001\000\000\000\000\000\000\000\000\000\000\000\000\000\000\000\000\000\000\000\000\000\000\000\001\000\000\000\000\000\000\000\000\000\000\000\000\000\000\000\000\000\000\000\000\000\000\000\001\000\000\000\000\000\000\000\000\000\000\000\000\000\000\000\001\000\000\000\000\000\000\000\000\000\000\000\000\000\000\000\000\000\000\000\000\000\000\000\001\000\000\000\000\000\000\000\001\000\000\000\000\000\000\000\000\000\000\000\000\000\000\000\001\000\000\000\000\000\000\000\000\000\000\000\000\000\000\000\001\000\000\000\000\000\000\000\000\000\000\000\000\000\000\000\000\000\000\000\000\000\000\000\000\000\000\000\000\000\000\000\000\000\000\000\000\000\000\000\001\000\000\000\000\000\000\000\000\000\000\000\000\000\000\000\001\000\000\000\000\000\000\000\000\000\000\000\000\000\000\000\001\000\000\000\000\000\000\000\000\000\000\000\000\000\000\000\001\000\000\000\000\000\000\000\001\000\000\000\000\000\000\000\000\000\000\000\000\000\000\000\000\000\000\000\000\000\000\000\000\000\000\000\000\000\000\000\000\000\000\000\000\000\000\000\001\000\000\000\000\000\000\000\000\000\000\000\000\000\000\000\001\000\000\000\000\000\000\000\000\000\000\000\000\000\000\000\001\000\000\000\000\000\000\000\000\000\000\000\000\000\000\000\000\000\000\000\000\000\000\000\000\000\000\000\000\000\000\000\001\000\000\000\000\000\000\000\001\000\000\000\000\000\000\000\000\000\000\000\000\000\000\000\000\000\000\000\000\000\000\000\000\000\000\000\000\000\000\000\001\000\000\000\000\000\000\000\000\000\000\000\000\000\000\000\000\000\000\000\000\000\000\000\001\000\000\000\000\000\000\000\001\000\000\000\000\000\000\000\000\000\000\000\000\000\000\000\000\000\000\000\000\000\000\000\000\000\000\000\000\000\000\000\000\000\000\000\000\000\000\000\001\000\000\000\000\000\000\000\000\000\000\000\000\000\000\000\000\000\000\000\000\000\000\000\001\000\000\000\000\000\000\000\001\000\000\000\000\000\000\000\000\000\000\000\000\000\000\000\000\000\000\000\000\000\000\000\000\000\000\000\000\000\000\000\000\000\000\000\000\000\000\000\001\000\000\000\000\000\000\000\000\000\000\000\000\000\000\000\000\000\000\000\000\000\000\000\000\000\000\000\000\000\000\000\001\000\000\000\000\000\000\000\000\000\000\000\000\000\000\000\000\000\000\000\000\000\000\000\001\000\000\000\000\000\000\000\001\000\000\000\000\000\000\000\000\000\000\000\000\000\000\000\001\000\000\000\000\000\000\000\001\000\000\000\000\000\000\000\000\000\000\000\000\000\000\000\000\000\000\000\000\000\000\000\000\000\000\000\000\000\000\000\000\000\000\000\000\000\000\000\001\000\000\000\000\000\000\000\000\000\000\000\000\000\000\000\000\000\000\000\000\000\000\000\001\000\000\000\000\000\000\000\000\000\000\000\000\000\000\000\000\000\000\000\000\000\000\000\000\000\000\000\000\000\000\000"
      }
    }
  }
}
node {
  name: "tensors/component_9"
  op: "Const"
  device: "/device:CPU:0"
  attr {
    key: "_output_shapes"
    value {
      list {
        shape {
          dim {
            size: 243
          }
        }
      }
    }
  }
  attr {
    key: "dtype"
    value {
      type: DT_INT64
    }
  }
  attr {
    key: "value"
    value {
      tensor {
        dtype: DT_INT64
        tensor_shape {
          dim {
            size: 243
          }
        }
        tensor_content: "\001\000\000\000\000\000\000\000\001\000\000\000\000\000\000\000\001\000\000\000\000\000\000\000\001\000\000\000\000\000\000\000\001\000\000\000\000\000\000\000\001\000\000\000\000\000\000\000\001\000\000\000\000\000\000\000\000\000\000\000\000\000\000\000\001\000\000\000\000\000\000\000\000\000\000\000\000\000\000\000\001\000\000\000\000\000\000\000\000\000\000\000\000\000\000\000\000\000\000\000\000\000\000\000\000\000\000\000\000\000\000\000\001\000\000\000\000\000\000\000\000\000\000\000\000\000\000\000\001\000\000\000\000\000\000\000\000\000\000\000\000\000\000\000\001\000\000\000\000\000\000\000\001\000\000\000\000\000\000\000\000\000\000\000\000\000\000\000\001\000\000\000\000\000\000\000\001\000\000\000\000\000\000\000\000\000\000\000\000\000\000\000\000\000\000\000\000\000\000\000\001\000\000\000\000\000\000\000\001\000\000\000\000\000\000\000\000\000\000\000\000\000\000\000\000\000\000\000\000\000\000\000\000\000\000\000\000\000\000\000\000\000\000\000\000\000\000\000\000\000\000\000\000\000\000\000\000\000\000\000\000\000\000\000\000\000\000\000\000\000\000\000\001\000\000\000\000\000\000\000\001\000\000\000\000\000\000\000\001\000\000\000\000\000\000\000\001\000\000\000\000\000\000\000\001\000\000\000\000\000\000\000\001\000\000\000\000\000\000\000\000\000\000\000\000\000\000\000\000\000\000\000\000\000\000\000\000\000\000\000\000\000\000\000\000\000\000\000\000\000\000\000\000\000\000\000\000\000\000\000\000\000\000\000\000\000\000\000\000\000\000\000\000\000\000\000\001\000\000\000\000\000\000\000\001\000\000\000\000\000\000\000\001\000\000\000\000\000\000\000\001\000\000\000\000\000\000\000\000\000\000\000\000\000\000\000\001\000\000\000\000\000\000\000\000\000\000\000\000\000\000\000\000\000\000\000\000\000\000\000\001\000\000\000\000\000\000\000\000\000\000\000\000\000\000\000\000\000\000\000\000\000\000\000\000\000\000\000\000\000\000\000\001\000\000\000\000\000\000\000\001\000\000\000\000\000\000\000\001\000\000\000\000\000\000\000\001\000\000\000\000\000\000\000\001\000\000\000\000\000\000\000\001\000\000\000\000\000\000\000\001\000\000\000\000\000\000\000\001\000\000\000\000\000\000\000\000\000\000\000\000\000\000\000\000\000\000\000\000\000\000\000\000\000\000\000\000\000\000\000\000\000\000\000\000\000\000\000\000\000\000\000\000\000\000\000\000\000\000\000\000\000\000\000\000\000\000\000\000\000\000\000\000\000\000\000\000\000\000\000\000\000\000\000\000\000\000\000\000\000\000\000\000\000\000\000\001\000\000\000\000\000\000\000\001\000\000\000\000\000\000\000\001\000\000\000\000\000\000\000\001\000\000\000\000\000\000\000\001\000\000\000\000\000\000\000\001\000\000\000\000\000\000\000\001\000\000\000\000\000\000\000\001\000\000\000\000\000\000\000\001\000\000\000\000\000\000\000\001\000\000\000\000\000\000\000\000\000\000\000\000\000\000\000\000\000\000\000\000\000\000\000\000\000\000\000\000\000\000\000\000\000\000\000\000\000\000\000\000\000\000\000\000\000\000\000\000\000\000\000\000\000\000\000\000\000\000\000\000\000\000\000\000\000\000\000\000\000\000\000\000\000\000\000\000\000\000\000\000\000\000\000\000\000\000\000\001\000\000\000\000\000\000\000\001\000\000\000\000\000\000\000\001\000\000\000\000\000\000\000\001\000\000\000\000\000\000\000\001\000\000\000\000\000\000\000\001\000\000\000\000\000\000\000\001\000\000\000\000\000\000\000\001\000\000\000\000\000\000\000\001\000\000\000\000\000\000\000\000\000\000\000\000\000\000\000\000\000\000\000\000\000\000\000\000\000\000\000\000\000\000\000\000\000\000\000\000\000\000\000\000\000\000\000\000\000\000\000\000\000\000\000\000\000\000\000\000\000\000\000\000\000\000\000\000\000\000\000\000\000\000\000\001\000\000\000\000\000\000\000\001\000\000\000\000\000\000\000\001\000\000\000\000\000\000\000\001\000\000\000\000\000\000\000\001\000\000\000\000\000\000\000\001\000\000\000\000\000\000\000\001\000\000\000\000\000\000\000\001\000\000\000\000\000\000\000\000\000\000\000\000\000\000\000\000\000\000\000\000\000\000\000\000\000\000\000\000\000\000\000\000\000\000\000\000\000\000\000\000\000\000\000\000\000\000\000\000\000\000\000\000\000\000\000\000\000\000\000\000\000\000\000\001\000\000\000\000\000\000\000\001\000\000\000\000\000\000\000\001\000\000\000\000\000\000\000\000\000\000\000\000\000\000\000\000\000\000\000\000\000\000\000\001\000\000\000\000\000\000\000\000\000\000\000\000\000\000\000\001\000\000\000\000\000\000\000\000\000\000\000\000\000\000\000\000\000\000\000\000\000\000\000\001\000\000\000\000\000\000\000\001\000\000\000\000\000\000\000\001\000\000\000\000\000\000\000\000\000\000\000\000\000\000\000\000\000\000\000\000\000\000\000\000\000\000\000\000\000\000\000\000\000\000\000\000\000\000\000\000\000\000\000\000\000\000\000\000\000\000\000\000\000\000\000\000\000\000\000\000\000\000\000\000\000\000\000\000\000\000\000\001\000\000\000\000\000\000\000\001\000\000\000\000\000\000\000\001\000\000\000\000\000\000\000\001\000\000\000\000\000\000\000\001\000\000\000\000\000\000\000\001\000\000\000\000\000\000\000\001\000\000\000\000\000\000\000\001\000\000\000\000\000\000\000\001\000\000\000\000\000\000\000\001\000\000\000\000\000\000\000\001\000\000\000\000\000\000\000\001\000\000\000\000\000\000\000\000\000\000\000\000\000\000\000\000\000\000\000\000\000\000\000\000\000\000\000\000\000\000\000\000\000\000\000\000\000\000\000\000\000\000\000\000\000\000\000\000\000\000\000\000\000\000\000\000\000\000\000\000\000\000\000\001\000\000\000\000\000\000\000\000\000\000\000\000\000\000\000\000\000\000\000\000\000\000\000\000\000\000\000\000\000\000\000\000\000\000\000\000\000\000\000\000\000\000\000\000\000\000\000\000\000\000\000\000\000\000\000\001\000\000\000\000\000\000\000\001\000\000\000\000\000\000\000\001\000\000\000\000\000\000\000\001\000\000\000\000\000\000\000\001\000\000\000\000\000\000\000\000\000\000\000\000\000\000\000\000\000\000\000\000\000\000\000\000\000\000\000\000\000\000\000\000\000\000\000\000\000\000\000\000\000\000\000\000\000\000\000\000\000\000\000\000\000\000\000\000\000\000\000\000\000\000\000\001\000\000\000\000\000\000\000\001\000\000\000\000\000\000\000\001\000\000\000\000\000\000\000\001\000\000\000\000\000\000\000\001\000\000\000\000\000\000\000\001\000\000\000\000\000\000\000\001\000\000\000\000\000\000\000\001\000\000\000\000\000\000\000\001\000\000\000\000\000\000\000\001\000\000\000\000\000\000\000\001\000\000\000\000\000\000\000\001\000\000\000\000\000\000\000\001\000\000\000\000\000\000\000\000\000\000\000\000\000\000\000\000\000\000\000\000\000\000\000\000\000\000\000\000\000\000\000\000\000\000\000\000\000\000\000\000\000\000\000\000\000\000\000\000\000\000\000\000\000\000\000\000\000\000\000\000\000\000\000\000\000\000\000\000\000\000\000\001\000\000\000\000\000\000\000\001\000\000\000\000\000\000\000\001\000\000\000\000\000\000\000\001\000\000\000\000\000\000\000\001\000\000\000\000\000\000\000\001\000\000\000\000\000\000\000\001\000\000\000\000\000\000\000\001\000\000\000\000\000\000\000\001\000\000\000\000\000\000\000\001\000\000\000\000\000\000\000\000\000\000\000\000\000\000\000\000\000\000\000\000\000\000\000\000\000\000\000\000\000\000\000\000\000\000\000\000\000\000\000\000\000\000\000\000\000\000\000\000\000\000\000\000\000\000\000\000\000\000\000\000\000\000\000\000\000\000\000\000\000\000\000\001\000\000\000\000\000\000\000\001\000\000\000\000\000\000\000\001\000\000\000\000\000\000\000\001\000\000\000\000\000\000\000\001\000\000\000\000\000\000\000\001\000\000\000\000\000\000\000\001\000\000\000\000\000\000\000\000\000\000\000\000\000\000\000\000\000\000\000\000\000\000\000\000\000\000\000\000\000\000\000\000\000\000\000\000\000\000\000\000\000\000\000\000\000\000\000\000\000\000\000\000\000\000\000\000\000\000\000\000\000\000\000\000\000\000\000\000\000\000\000\000\000\000\000\000\000\000\000"
      }
    }
  }
}
node {
  name: "buffer_size"
  op: "Const"
  device: "/device:CPU:0"
  attr {
    key: "_output_shapes"
    value {
      list {
        shape {
        }
      }
    }
  }
  attr {
    key: "dtype"
    value {
      type: DT_INT64
    }
  }
  attr {
    key: "value"
    value {
      tensor {
        dtype: DT_INT64
        tensor_shape {
        }
        int64_val: 1000
      }
    }
  }
}
node {
  name: "seed"
  op: "Const"
  device: "/device:CPU:0"
  attr {
    key: "_output_shapes"
    value {
      list {
        shape {
        }
      }
    }
  }
  attr {
    key: "dtype"
    value {
      type: DT_INT64
    }
  }
  attr {
    key: "value"
    value {
      tensor {
        dtype: DT_INT64
        tensor_shape {
        }
        int64_val: 0
      }
    }
  }
}
node {
  name: "seed2"
  op: "Const"
  device: "/device:CPU:0"
  attr {
    key: "_output_shapes"
    value {
      list {
        shape {
        }
      }
    }
  }
  attr {
    key: "dtype"
    value {
      type: DT_INT64
    }
  }
  attr {
    key: "value"
    value {
      tensor {
        dtype: DT_INT64
        tensor_shape {
        }
        int64_val: 0
      }
    }
  }
}
node {
  name: "count"
  op: "Const"
  device: "/device:CPU:0"
  attr {
    key: "_output_shapes"
    value {
      list {
        shape {
        }
      }
    }
  }
  attr {
    key: "dtype"
    value {
      type: DT_INT64
    }
  }
  attr {
    key: "value"
    value {
      tensor {
        dtype: DT_INT64
        tensor_shape {
        }
        int64_val: -1
      }
    }
  }
}
node {
  name: "batch_size"
  op: "Const"
  device: "/device:CPU:0"
  attr {
    key: "_output_shapes"
    value {
      list {
        shape {
        }
      }
    }
  }
  attr {
    key: "dtype"
    value {
      type: DT_INT64
    }
  }
  attr {
    key: "value"
    value {
      tensor {
        dtype: DT_INT64
        tensor_shape {
        }
        int64_val: 100
      }
    }
  }
}
node {
  name: "drop_remainder"
  op: "Const"
  device: "/device:CPU:0"
  attr {
    key: "_output_shapes"
    value {
      list {
        shape {
        }
      }
    }
  }
  attr {
    key: "dtype"
    value {
      type: DT_BOOL
    }
  }
  attr {
    key: "value"
    value {
      tensor {
        dtype: DT_BOOL
        tensor_shape {
        }
        bool_val: false
      }
    }
  }
}
node {
  name: "Iterator"
  op: "Iterator"
  attr {
    key: "_output_shapes"
    value {
      list {
        shape {
        }
      }
    }
  }
  attr {
    key: "container"
    value {
      s: ""
    }
  }
  attr {
    key: "output_shapes"
    value {
      list {
        shape {
          dim {
            size: -1
          }
        }
        shape {
          dim {
            size: -1
          }
        }
        shape {
          dim {
            size: -1
          }
        }
        shape {
          dim {
            size: -1
          }
        }
        shape {
          dim {
            size: -1
          }
        }
        shape {
          dim {
            size: -1
          }
        }
        shape {
          dim {
            size: -1
          }
        }
        shape {
          dim {
            size: -1
          }
        }
        shape {
          dim {
            size: -1
          }
        }
        shape {
          dim {
            size: -1
          }
        }
      }
    }
  }
  attr {
    key: "output_types"
    value {
      list {
        type: DT_DOUBLE
        type: DT_DOUBLE
        type: DT_DOUBLE
        type: DT_DOUBLE
        type: DT_INT64
        type: DT_INT64
        type: DT_INT64
        type: DT_INT64
        type: DT_INT64
        type: DT_INT64
      }
    }
  }
  attr {
    key: "shared_name"
    value {
      s: ""
    }
  }
}
node {
  name: "TensorSliceDataset"
  op: "TensorSliceDataset"
  input: "tensors/component_0"
  input: "tensors/component_1"
  input: "tensors/component_2"
  input: "tensors/component_3"
  input: "tensors/component_4"
  input: "tensors/component_5"
  input: "tensors/component_6"
  input: "tensors/component_7"
  input: "tensors/component_8"
  input: "tensors/component_9"
  attr {
    key: "Toutput_types"
    value {
      list {
        type: DT_DOUBLE
        type: DT_DOUBLE
        type: DT_DOUBLE
        type: DT_DOUBLE
        type: DT_INT64
        type: DT_INT64
        type: DT_INT64
        type: DT_INT64
        type: DT_INT64
        type: DT_INT64
      }
    }
  }
  attr {
    key: "_class"
    value {
      list {
        s: "loc:@Iterator"
      }
    }
  }
  attr {
    key: "_output_shapes"
    value {
      list {
        shape {
        }
      }
    }
  }
  attr {
    key: "output_shapes"
    value {
      list {
        shape {
        }
        shape {
        }
        shape {
        }
        shape {
        }
        shape {
        }
        shape {
        }
        shape {
        }
        shape {
        }
        shape {
        }
        shape {
        }
      }
    }
  }
}
node {
  name: "ShuffleDataset"
  op: "ShuffleDataset"
  input: "TensorSliceDataset"
  input: "buffer_size"
  input: "seed"
  input: "seed2"
  attr {
    key: "_class"
    value {
      list {
        s: "loc:@Iterator"
      }
    }
  }
  attr {
    key: "_output_shapes"
    value {
      list {
        shape {
        }
      }
    }
  }
  attr {
    key: "output_shapes"
    value {
      list {
        shape {
        }
        shape {
        }
        shape {
        }
        shape {
        }
        shape {
        }
        shape {
        }
        shape {
        }
        shape {
        }
        shape {
        }
        shape {
        }
      }
    }
  }
  attr {
    key: "output_types"
    value {
      list {
        type: DT_DOUBLE
        type: DT_DOUBLE
        type: DT_DOUBLE
        type: DT_DOUBLE
        type: DT_INT64
        type: DT_INT64
        type: DT_INT64
        type: DT_INT64
        type: DT_INT64
        type: DT_INT64
      }
    }
  }
  attr {
    key: "reshuffle_each_iteration"
    value {
      b: true
    }
  }
}
node {
  name: "RepeatDataset"
  op: "RepeatDataset"
  input: "ShuffleDataset"
  input: "count"
  attr {
    key: "_class"
    value {
      list {
        s: "loc:@Iterator"
      }
    }
  }
  attr {
    key: "_output_shapes"
    value {
      list {
        shape {
        }
      }
    }
  }
  attr {
    key: "output_shapes"
    value {
      list {
        shape {
        }
        shape {
        }
        shape {
        }
        shape {
        }
        shape {
        }
        shape {
        }
        shape {
        }
        shape {
        }
        shape {
        }
        shape {
        }
      }
    }
  }
  attr {
    key: "output_types"
    value {
      list {
        type: DT_DOUBLE
        type: DT_DOUBLE
        type: DT_DOUBLE
        type: DT_DOUBLE
        type: DT_INT64
        type: DT_INT64
        type: DT_INT64
        type: DT_INT64
        type: DT_INT64
        type: DT_INT64
      }
    }
  }
}
node {
  name: "BatchDatasetV2"
  op: "BatchDatasetV2"
  input: "RepeatDataset"
  input: "batch_size"
  input: "drop_remainder"
  attr {
    key: "_class"
    value {
      list {
        s: "loc:@Iterator"
      }
    }
  }
  attr {
    key: "_output_shapes"
    value {
      list {
        shape {
        }
      }
    }
  }
  attr {
    key: "output_shapes"
    value {
      list {
        shape {
          dim {
            size: -1
          }
        }
        shape {
          dim {
            size: -1
          }
        }
        shape {
          dim {
            size: -1
          }
        }
        shape {
          dim {
            size: -1
          }
        }
        shape {
          dim {
            size: -1
          }
        }
        shape {
          dim {
            size: -1
          }
        }
        shape {
          dim {
            size: -1
          }
        }
        shape {
          dim {
            size: -1
          }
        }
        shape {
          dim {
            size: -1
          }
        }
        shape {
          dim {
            size: -1
          }
        }
      }
    }
  }
  attr {
    key: "output_types"
    value {
      list {
        type: DT_DOUBLE
        type: DT_DOUBLE
        type: DT_DOUBLE
        type: DT_DOUBLE
        type: DT_INT64
        type: DT_INT64
        type: DT_INT64
        type: DT_INT64
        type: DT_INT64
        type: DT_INT64
      }
    }
  }
}
node {
  name: "MakeIterator"
  op: "MakeIterator"
  input: "BatchDatasetV2"
  input: "Iterator"
  attr {
    key: "_class"
    value {
      list {
        s: "loc:@Iterator"
      }
    }
  }
}
node {
  name: "IteratorToStringHandle"
  op: "IteratorToStringHandle"
  input: "Iterator"
  attr {
    key: "_output_shapes"
    value {
      list {
        shape {
        }
      }
    }
  }
}
node {
  name: "IteratorGetNext"
  op: "IteratorGetNext"
  input: "Iterator"
  attr {
    key: "_output_shapes"
    value {
      list {
        shape {
          dim {
            size: -1
          }
        }
        shape {
          dim {
            size: -1
          }
        }
        shape {
          dim {
            size: -1
          }
        }
        shape {
          dim {
            size: -1
          }
        }
        shape {
          dim {
            size: -1
          }
        }
        shape {
          dim {
            size: -1
          }
        }
        shape {
          dim {
            size: -1
          }
        }
        shape {
          dim {
            size: -1
          }
        }
        shape {
          dim {
            size: -1
          }
        }
        shape {
          dim {
            size: -1
          }
        }
      }
    }
  }
  attr {
    key: "output_shapes"
    value {
      list {
        shape {
          dim {
            size: -1
          }
        }
        shape {
          dim {
            size: -1
          }
        }
        shape {
          dim {
            size: -1
          }
        }
        shape {
          dim {
            size: -1
          }
        }
        shape {
          dim {
            size: -1
          }
        }
        shape {
          dim {
            size: -1
          }
        }
        shape {
          dim {
            size: -1
          }
        }
        shape {
          dim {
            size: -1
          }
        }
        shape {
          dim {
            size: -1
          }
        }
        shape {
          dim {
            size: -1
          }
        }
      }
    }
  }
  attr {
    key: "output_types"
    value {
      list {
        type: DT_DOUBLE
        type: DT_DOUBLE
        type: DT_DOUBLE
        type: DT_DOUBLE
        type: DT_INT64
        type: DT_INT64
        type: DT_INT64
        type: DT_INT64
        type: DT_INT64
        type: DT_INT64
      }
    }
  }
}
node {
  name: "dnn/input_from_feature_columns/input_layer/AF3/ExpandDims/dim"
  op: "Const"
  attr {
    key: "_output_shapes"
    value {
      list {
        shape {
        }
      }
    }
  }
  attr {
    key: "dtype"
    value {
      type: DT_INT32
    }
  }
  attr {
    key: "value"
    value {
      tensor {
        dtype: DT_INT32
        tensor_shape {
        }
        int_val: -1
      }
    }
  }
}
node {
  name: "dnn/input_from_feature_columns/input_layer/AF3/ExpandDims"
  op: "ExpandDims"
  input: "IteratorGetNext"
  input: "dnn/input_from_feature_columns/input_layer/AF3/ExpandDims/dim"
  attr {
    key: "T"
    value {
      type: DT_DOUBLE
    }
  }
  attr {
    key: "Tdim"
    value {
      type: DT_INT32
    }
  }
  attr {
    key: "_output_shapes"
    value {
      list {
        shape {
          dim {
            size: -1
          }
          dim {
            size: 1
          }
        }
      }
    }
  }
}
node {
  name: "dnn/input_from_feature_columns/input_layer/AF3/ToFloat"
  op: "Cast"
  input: "dnn/input_from_feature_columns/input_layer/AF3/ExpandDims"
  attr {
    key: "DstT"
    value {
      type: DT_FLOAT
    }
  }
  attr {
    key: "SrcT"
    value {
      type: DT_DOUBLE
    }
  }
  attr {
    key: "_output_shapes"
    value {
      list {
        shape {
          dim {
            size: -1
          }
          dim {
            size: 1
          }
        }
      }
    }
  }
}
node {
  name: "dnn/input_from_feature_columns/input_layer/AF3/Shape"
  op: "Shape"
  input: "dnn/input_from_feature_columns/input_layer/AF3/ToFloat"
  attr {
    key: "T"
    value {
      type: DT_FLOAT
    }
  }
  attr {
    key: "_output_shapes"
    value {
      list {
        shape {
          dim {
            size: 2
          }
        }
      }
    }
  }
  attr {
    key: "out_type"
    value {
      type: DT_INT32
    }
  }
}
node {
  name: "dnn/input_from_feature_columns/input_layer/AF3/strided_slice/stack"
  op: "Const"
  attr {
    key: "_output_shapes"
    value {
      list {
        shape {
          dim {
            size: 1
          }
        }
      }
    }
  }
  attr {
    key: "dtype"
    value {
      type: DT_INT32
    }
  }
  attr {
    key: "value"
    value {
      tensor {
        dtype: DT_INT32
        tensor_shape {
          dim {
            size: 1
          }
        }
        int_val: 0
      }
    }
  }
}
node {
  name: "dnn/input_from_feature_columns/input_layer/AF3/strided_slice/stack_1"
  op: "Const"
  attr {
    key: "_output_shapes"
    value {
      list {
        shape {
          dim {
            size: 1
          }
        }
      }
    }
  }
  attr {
    key: "dtype"
    value {
      type: DT_INT32
    }
  }
  attr {
    key: "value"
    value {
      tensor {
        dtype: DT_INT32
        tensor_shape {
          dim {
            size: 1
          }
        }
        int_val: 1
      }
    }
  }
}
node {
  name: "dnn/input_from_feature_columns/input_layer/AF3/strided_slice/stack_2"
  op: "Const"
  attr {
    key: "_output_shapes"
    value {
      list {
        shape {
          dim {
            size: 1
          }
        }
      }
    }
  }
  attr {
    key: "dtype"
    value {
      type: DT_INT32
    }
  }
  attr {
    key: "value"
    value {
      tensor {
        dtype: DT_INT32
        tensor_shape {
          dim {
            size: 1
          }
        }
        int_val: 1
      }
    }
  }
}
node {
  name: "dnn/input_from_feature_columns/input_layer/AF3/strided_slice"
  op: "StridedSlice"
  input: "dnn/input_from_feature_columns/input_layer/AF3/Shape"
  input: "dnn/input_from_feature_columns/input_layer/AF3/strided_slice/stack"
  input: "dnn/input_from_feature_columns/input_layer/AF3/strided_slice/stack_1"
  input: "dnn/input_from_feature_columns/input_layer/AF3/strided_slice/stack_2"
  attr {
    key: "Index"
    value {
      type: DT_INT32
    }
  }
  attr {
    key: "T"
    value {
      type: DT_INT32
    }
  }
  attr {
    key: "_output_shapes"
    value {
      list {
        shape {
        }
      }
    }
  }
  attr {
    key: "begin_mask"
    value {
      i: 0
    }
  }
  attr {
    key: "ellipsis_mask"
    value {
      i: 0
    }
  }
  attr {
    key: "end_mask"
    value {
      i: 0
    }
  }
  attr {
    key: "new_axis_mask"
    value {
      i: 0
    }
  }
  attr {
    key: "shrink_axis_mask"
    value {
      i: 1
    }
  }
}
node {
  name: "dnn/input_from_feature_columns/input_layer/AF3/Reshape/shape/1"
  op: "Const"
  attr {
    key: "_output_shapes"
    value {
      list {
        shape {
        }
      }
    }
  }
  attr {
    key: "dtype"
    value {
      type: DT_INT32
    }
  }
  attr {
    key: "value"
    value {
      tensor {
        dtype: DT_INT32
        tensor_shape {
        }
        int_val: 1
      }
    }
  }
}
node {
  name: "dnn/input_from_feature_columns/input_layer/AF3/Reshape/shape"
  op: "Pack"
  input: "dnn/input_from_feature_columns/input_layer/AF3/strided_slice"
  input: "dnn/input_from_feature_columns/input_layer/AF3/Reshape/shape/1"
  attr {
    key: "N"
    value {
      i: 2
    }
  }
  attr {
    key: "T"
    value {
      type: DT_INT32
    }
  }
  attr {
    key: "_output_shapes"
    value {
      list {
        shape {
          dim {
            size: 2
          }
        }
      }
    }
  }
  attr {
    key: "axis"
    value {
      i: 0
    }
  }
}
node {
  name: "dnn/input_from_feature_columns/input_layer/AF3/Reshape"
  op: "Reshape"
  input: "dnn/input_from_feature_columns/input_layer/AF3/ToFloat"
  input: "dnn/input_from_feature_columns/input_layer/AF3/Reshape/shape"
  attr {
    key: "T"
    value {
      type: DT_FLOAT
    }
  }
  attr {
    key: "Tshape"
    value {
      type: DT_INT32
    }
  }
  attr {
    key: "_output_shapes"
    value {
      list {
        shape {
          dim {
            size: -1
          }
          dim {
            size: 1
          }
        }
      }
    }
  }
}
node {
  name: "dnn/input_from_feature_columns/input_layer/AF4/ExpandDims/dim"
  op: "Const"
  attr {
    key: "_output_shapes"
    value {
      list {
        shape {
        }
      }
    }
  }
  attr {
    key: "dtype"
    value {
      type: DT_INT32
    }
  }
  attr {
    key: "value"
    value {
      tensor {
        dtype: DT_INT32
        tensor_shape {
        }
        int_val: -1
      }
    }
  }
}
node {
  name: "dnn/input_from_feature_columns/input_layer/AF4/ExpandDims"
  op: "ExpandDims"
  input: "IteratorGetNext:1"
  input: "dnn/input_from_feature_columns/input_layer/AF4/ExpandDims/dim"
  attr {
    key: "T"
    value {
      type: DT_DOUBLE
    }
  }
  attr {
    key: "Tdim"
    value {
      type: DT_INT32
    }
  }
  attr {
    key: "_output_shapes"
    value {
      list {
        shape {
          dim {
            size: -1
          }
          dim {
            size: 1
          }
        }
      }
    }
  }
}
node {
  name: "dnn/input_from_feature_columns/input_layer/AF4/ToFloat"
  op: "Cast"
  input: "dnn/input_from_feature_columns/input_layer/AF4/ExpandDims"
  attr {
    key: "DstT"
    value {
      type: DT_FLOAT
    }
  }
  attr {
    key: "SrcT"
    value {
      type: DT_DOUBLE
    }
  }
  attr {
    key: "_output_shapes"
    value {
      list {
        shape {
          dim {
            size: -1
          }
          dim {
            size: 1
          }
        }
      }
    }
  }
}
node {
  name: "dnn/input_from_feature_columns/input_layer/AF4/Shape"
  op: "Shape"
  input: "dnn/input_from_feature_columns/input_layer/AF4/ToFloat"
  attr {
    key: "T"
    value {
      type: DT_FLOAT
    }
  }
  attr {
    key: "_output_shapes"
    value {
      list {
        shape {
          dim {
            size: 2
          }
        }
      }
    }
  }
  attr {
    key: "out_type"
    value {
      type: DT_INT32
    }
  }
}
node {
  name: "dnn/input_from_feature_columns/input_layer/AF4/strided_slice/stack"
  op: "Const"
  attr {
    key: "_output_shapes"
    value {
      list {
        shape {
          dim {
            size: 1
          }
        }
      }
    }
  }
  attr {
    key: "dtype"
    value {
      type: DT_INT32
    }
  }
  attr {
    key: "value"
    value {
      tensor {
        dtype: DT_INT32
        tensor_shape {
          dim {
            size: 1
          }
        }
        int_val: 0
      }
    }
  }
}
node {
  name: "dnn/input_from_feature_columns/input_layer/AF4/strided_slice/stack_1"
  op: "Const"
  attr {
    key: "_output_shapes"
    value {
      list {
        shape {
          dim {
            size: 1
          }
        }
      }
    }
  }
  attr {
    key: "dtype"
    value {
      type: DT_INT32
    }
  }
  attr {
    key: "value"
    value {
      tensor {
        dtype: DT_INT32
        tensor_shape {
          dim {
            size: 1
          }
        }
        int_val: 1
      }
    }
  }
}
node {
  name: "dnn/input_from_feature_columns/input_layer/AF4/strided_slice/stack_2"
  op: "Const"
  attr {
    key: "_output_shapes"
    value {
      list {
        shape {
          dim {
            size: 1
          }
        }
      }
    }
  }
  attr {
    key: "dtype"
    value {
      type: DT_INT32
    }
